
/**
  ******************************************************************************
  * @file    network_data.c
  * @author  AST Embedded Analytics Research Platform
  * @date    Tue Mar  8 13:28:20 2022
  * @brief   AI Tool Automatic Code Generator for Embedded NN computing
  ******************************************************************************
  * @attention
  *
  * Copyright (c) 2021 STMicroelectronics.
  * All rights reserved.
  *
  * This software is licensed under terms that can be found in the LICENSE file
  * in the root directory of this software component.
  * If no LICENSE file comes with this software, it is provided AS-IS.
  ******************************************************************************
  */
#include "network_data.h"
#include "ai_platform_interface.h"

AI_API_DECLARE_BEGIN

AI_ALIGNED(32)
const ai_u64 s_network_network_weights_array_u64[ 4835 ] = {
  0x3d6693503d4b4bbeU, 0x3d50c97a3d431149U, 0x3d7b27343d230625U, 0x3d5d6c563cfa6ec4U,
  0x3df777e13d164225U, 0x3d0f65ca3d45ddcaU, 0x3d4e46f03dbc68aaU, 0x3e0f6a783d2bc487U,
  0x3d18f73b3d5e4323U, 0x3c575df83ae9b881U, 0x3ba2e8183c26ddf6U, 0x3d5ce3043d2ca80fU,
  0x3d22e6c73cfcf9a2U, 0x3e73abc43d0ee743U, 0x3d11969cbb0dd823U, 0xbddc84f83f136cf0U,
  0x3e30ddd93eebc2dbU, 0x3e44b4a23e15e846U, 0x3d4723463f0f2c9aU, 0x3f96bc47be1f5160U,
  0x3e265aefbe831995U, 0x3dc72cdbbc108e06U, 0xbd401cd23e39cef8U, 0xbcc6ba213dc66ecfU,
  0x3db705673e00266fU, 0xbe17fb0e3daf761fU, 0x3e01a3f63bde73a5U, 0x3fce99e1be27d97aU,
  0xbfdd1aad3fa0745cU, 0x40491622bf893f53U, 0x400153d0bff2b43dU, 0xbf5f19efbeb547e3U,
  0x407fa0d23fa814b6U, 0x3f20593abf0b2125U, 0xbeebb55e3f2b1422U, 0x405f97b7bee620a7U,
  0x3fbe29a23f7f6bebU, 0x3e6a3c90403b5df7U, 0x3f8f7f813db85d2eU, 0x3e9e97b1becec3c1U,
  0x3e0271303fe1b1d1U, 0x3eaac422bf2db2d3U, 0xbed3add23e5ca02cU, 0x3f11d81f3fef06b0U,
  0xbfd5f46b3f86e4ffU, 0x3e1321393f75e1f4U, 0x3f1b16d93e5327c5U, 0x3eb819813f294075U,
  0x3ee3ff6e3edfbd03U, 0x3f90c5a43f1dcb02U, 0x3f046ec6bf039809U, 0xbee7468c3e0b6eecU,
  0x3faa97993ed7bb2dU, 0x3dd335b5be9724efU, 0x3eb3191640570f3aU, 0x40c05ee840fbce37U,
  0xbf6fc43b3fb856fdU, 0xbe371531c0c7b4d3U, 0x3f07add3c0fda37eU, 0x40ddca1d3d9d8fceU,
  0x3e9476b73fe05eceU, 0xbeb9aef6bd19ade9U, 0xc108e7e1bf11eaa9U, 0x40c0f991bf9c7c9cU,
  0xbed7935340aeb6c5U, 0x3ea2a4b83e6833afU, 0xc0ae4abe40084395U, 0x3eb2113fc0a8e2d7U,
  0x3d80df3a3e8a2175U, 0x3cb85ffa3c59ae0eU, 0xbea9d66c3e3f13b8U, 0x3e27ccd2be8310c6U,
  0x3e81f3e43e9f90a9U, 0x3d1c1b563d5229a2U, 0x3e251b173d113c9dU, 0xbe3cf602be6b9ed0U,
  0x3e593a733dd62a38U, 0xbb5de3e73d396ca4U, 0x3e12e1e33d8253c9U, 0xbe16f19fbc4e3a5bU,
  0x3b00e5323ddf2b74U, 0x3e90b8ff3f44dba4U, 0x3fd32bebbe4b34e1U, 0x40935a8e3f9fa4a0U,
  0x3f5138d63fa5509fU, 0x3f20254dbe6ff9d8U, 0xbf46f2bf3c5508caU, 0x3f3339123fabd590U,
  0x3fc1bd4c3f0f63d8U, 0xbf3b11293f32de80U, 0xbf9e0246becb4997U, 0x3e97a627bf6d2012U,
  0xbe970b95bf3fd6e3U, 0xbf9b25603ed7de03U, 0x3af8c618bf07044fU, 0xbaab55113c06add6U,
  0x3b1e73643d86dc9eU, 0x3bffe357bc01828fU, 0x3a8a68be3c29291bU, 0x3ca8a6e4bc6c9e93U,
  0x3b89e5543bbaf1f3U, 0x3bdbed66bbd2d52aU, 0x3c8f84c3bc1e1697U, 0x3cb5eb053c1a7f63U,
  0x3bb93b133b364db4U, 0x3b3ccfd33bae03b7U, 0x3cda8ee73b29a132U, 0x3b5755c93b96cf9eU,
  0x3f0ed7e040c74008U, 0xc118fb07c09b5262U, 0xc114c07ac12157beU, 0x4003492cc02c292aU,
  0x3d044e743ce4a12cU, 0x3d1049343cc1429bU, 0xbe0c7f463c9065e7U, 0x3cc078453c3ca4faU,
  0x3f5bfa9bbcccfe3bU, 0xbe3a48083e2a7ebfU, 0xbe6224623f81c6dfU, 0xbd0a1481bf04ddc2U,
  0xbf5607c0bdeaf53bU, 0xbc99b0cf3dfdebecU, 0x3d635fb33c397ad4U, 0xbe022f6fbdd1a7e8U,
  0xbdc81fd43d885650U, 0x40103572bdbdb515U, 0xc05b90b4bea7a5cdU, 0xbfb724234007c89eU,
  0x3fe85ee1c0560a71U, 0xbf4c1264bf164301U, 0xbeda37a0be6d39a4U, 0xbe1e0a14bdc99478U,
  0xbeb651c3beb2ca9aU, 0xbe25bc803c612f8aU, 0xbdea742dbe0ed6b6U, 0xbf3078d13fac6628U,
  0x4041554240552d2fU, 0x408591d0bf54f25cU, 0xc041388abf48de26U, 0x3c4314da3d09a3c6U,
  0xbc9070b73a1ca6baU, 0x3c7fa8783d268b33U, 0x3db8d6c03d34b2a6U, 0xbeb0f85c3b965169U,
  0xbf2fb3a83e010cdcU, 0x3eb4faa9bdf52ba8U, 0xbf80a668bf129eefU, 0xbf637ddbbeada620U,
  0x400f94e23d2008dbU, 0xbffbe1803f128976U, 0x4093a390bfc2d3dbU, 0x40dee64dc0156014U,
  0x3efdea843d7470baU, 0xbf1ba2c83d8deec6U, 0xbf2b423ebed128b5U, 0x3da478ef3db31ee6U,
  0x3f5227ae3d960956U, 0x3f4d96e53f13eecfU, 0xbf4ff5aabf1579beU, 0xbd44362cbf470860U,
  0x3d8132df3d06402cU, 0x3f4db4423f504e58U, 0xbf18cef43f7a89e3U, 0xbf2f3937bf81e32eU,
  0x3d45ffcc3d3ab203U, 0xbe177db03ef0b2c5U, 0x3f0f996a3f65d6eeU, 0x3f8651123f206094U,
  0xc02e30fbbf39b3aaU, 0xbf21f307bf936fdaU, 0xbf07aed43bcd4defU, 0x3f15c937bf391107U,
  0x3cda5d943c319a8cU, 0x3eb1ff06bd31279dU, 0x3ee6e5c0be59103fU, 0x3d76e0b8bf0119c3U,
  0xbe5a97f53ea68badU, 0x3e681b2cbd442ee7U, 0xbe00cdcd3ef3c765U, 0x3f3f0777bf2a7da7U,
  0xbf97870f3e974616U, 0x3f0bf8cf3f9e3d00U, 0x3f5b4231bf2da80fU, 0xbf6bd62a3ea69745U,
  0x3efb32233ef60a54U, 0x3e51b533be9c5ddaU, 0xbf98f0ffbdcb30b7U, 0xbeafffafbd994f33U,
  0xbedff376bf46239aU, 0xbf88029bbd48526cU, 0xbe6416e13a5b9fc8U, 0xbc8185d7be62dff1U,
  0x3f0de7a83eae5f8eU, 0xbe05decd3e8c287cU, 0xbe9217e0bdf98c6aU, 0xbef1ae3fbe95d6c7U,
  0xbe43b58cbf711948U, 0x3e1fc131bf142507U, 0xbefa85863f912accU, 0xbefd5011bfb786ffU,
  0x3ea52936bf988df9U, 0xbee704a63f66e21aU, 0xbf21c006bd409b8dU, 0xbe5944fcbed84f2eU,
  0xbf346057bf30f975U, 0xbeaad8bd3f4a24a6U, 0xbd8c0d4ac02676faU, 0xbec88c23bf14c9a7U,
  0x40668562400d3290U, 0x3f0827a03fe44905U, 0x3f1d84a53f23e919U, 0xbedf83003ee87ee6U,
  0xbd4fa4463f08bebcU, 0x3f71b790befe64faU, 0x3fff4d3c3fbf6e82U, 0xbf1cf1cfbf87dd75U,
  0xbe9ae3454021d652U, 0xbf226aaabf0b9ddbU, 0xbf58d707bf833fa0U, 0x3f5a3287bf41e3c3U,
  0xc0ae7aae3e97b36dU, 0x3f675c64bf5763d8U, 0x3fe381da3e354587U, 0x3ee150cf3ebb18e5U,
  0xbef6e2da3ed2e537U, 0xbde3e2d3c041ce84U, 0xbe81a1d0bef91365U, 0xbf1ff2a43fad7e91U,
  0x3db550724005a8cdU, 0xc0a85c3fc01afea3U, 0x3ee9b140c017a934U, 0x3ee57461c04a332cU,
  0x3f9381f83f78ac7dU, 0xbe7f64c4be329976U, 0xbde9e7eabf2b54acU, 0xbe814673bd8e4d39U,
  0x3dadd238be126066U, 0xbd01bbabbd913187U, 0x3ddefbbbbbeaa3eaU, 0xbcb544423ca271b3U,
  0xbce24a4d3d25f6f2U, 0xbb6d8304baeaeea0U, 0x3daa70383f08e6c9U, 0xbee08b313d801787U,
  0xbeba2247bf8f7d4aU, 0xbc6cba123f07fe9dU, 0xbf24b65b3d1647d9U, 0xbfa23ab6bfb1d09dU,
  0x3fc794df3f583004U, 0xbeead18f3f7fc4caU, 0x3df3521b3cd2a4b8U, 0x3d5da1ab3c773dc8U,
  0x3dfb0615bd439ec6U, 0x3dad5acc3dc9d346U, 0x3e7f9a04bad5f267U, 0x3ee67a6c3d80adc3U,
  0x3ea8f5ea3f0c7858U, 0x3ed499e83dfbce1dU, 0x3cb2540b3e2ce2f7U, 0xbe388451be373003U,
  0x3e95d81a3e83259eU, 0x3e8c6c0b3e301240U, 0x3eb4a8453e9065b2U, 0xbd95725c3e9ffbe3U,
  0xbd815406bd3ab5a5U, 0x3dac99ac3e8f1c1aU, 0x3f2842ae3e5d3c4eU, 0xbd1e68703edaa448U,
  0x3f3ed5cc3f72ba7cU, 0x3f81adb6bf7576f6U, 0xbfba8259bdcea3b6U, 0x3d612aa33f73f5a1U,
  0xbe836774bf967ee9U, 0xbe0fe2be3d03ad1eU, 0x3e0e7eb13e34d412U, 0x3dbc65bebdbf66a0U,
  0xbe193364bc269db0U, 0x3befd8d83e835947U, 0x3e9e7d73be4ef3faU, 0xbe838c8b3dfb8876U,
  0x3d9916193e78be34U, 0xbd72b7babe9faa63U, 0xbd8a25e83d2eb420U, 0xbeaa7c68be1392a7U,
  0xbd449cf9be5763b8U, 0xbcc6e6b7be6a2750U, 0x3e53b0693e27b2c0U, 0xbe9cdf85be9b7bbeU,
  0xbea789a4bf00baf8U, 0xbeb7c2b4be435980U, 0x3e077237bea75810U, 0x3e39b47f3de1ad67U,
  0xbe1278d93d730615U, 0x3df1b73e3e6d4cdfU, 0x3e85f699bdf0771aU, 0x3caccd653d5abba5U,
  0xbe7e89cabdd5619cU, 0xbd8beab43e1ae4fdU, 0xbcadc2d0405343eaU, 0x3f6d22b2400150faU,
  0xbff72e293d37c270U, 0x3e7382f0bfad7edaU, 0xbf12c1eb3fd643f8U, 0x3f0f13673ee67323U,
  0xbfb064c13f9e69f6U, 0xbe3d1c0abc34d10bU, 0xbd9b2b2ebe8b3af1U, 0xbe82985bbe2ad57aU,
  0xbe6a9b65be166c1eU, 0xbed57579be84b23eU, 0x3e1f3ddabdc3b146U, 0x3dbee4a93cbaa391U,
  0x3dd304d03de79bb3U, 0xbd09e1cd3e1aa5cdU, 0x3d0311fdbd9cf991U, 0x3c942d04bd4df94dU,
  0xbe7e40f5bd04fe6cU, 0x3e310635be442addU, 0xbdc3976ebe6aa5ffU, 0x3e2059a63cfa23e4U,
  0x3d036211bbe5a9a5U, 0xbdbfd24fbefe87f1U, 0xbd6fae7c3db67d85U, 0xbd9a6ebbbe45b8d1U,
  0xbd901bbabe1a7e1cU, 0x3dc62e8bbe0ed974U, 0xbd8b6c24bd3b845eU, 0xbdf4cdcbbe855c20U,
  0xbddcd74e3e429c27U, 0x3d0dd7753e7d37d5U, 0x3e053c9d3dc68557U, 0xbd990f213dde1218U,
  0xbdc29be73d85543eU, 0xbdc08d673dfed0faU, 0x3d090e3d3cf20032U, 0x3e9fee7b3e24f3efU,
  0x3d93a65dbe1b01e8U, 0x3f08ab173dc87b19U, 0x3db166bc3c620b6fU, 0x3c8c0a6f3dad9a3dU,
  0xbee5c338bd8aa51eU, 0x3d255ec03e59ec1eU, 0x3e6cc16fbcf9c272U, 0x3d9f789b3e646299U,
  0xbee8ffda3d20cb2dU, 0xbeea1cfdbd7fb744U, 0x3e5f1580bdd77c3eU, 0x3d77588ebd4c6968U,
  0xbe2b9816be27323fU, 0xbded41383e5c65baU, 0x3e940a6bbe34fe52U, 0x3ea85bc63ed35595U,
  0x3eca81a23ea09b9aU, 0x3d8adf5b3e56debaU, 0x3e6b59503e93a4f1U, 0xbeb01eb0bdd01377U,
  0xbe87957dbe7d18abU, 0xbec2536cbee6f735U, 0xbec7fb4abe10802bU, 0x3eefd8f63f6d2ebfU,
  0xbf2ef0283f50619bU, 0xbd95f92e3e52c562U, 0x3dba5eef3d921b40U, 0x3d9dad593d598fbfU,
  0x3dabb2a83d8c4b01U, 0xbeb41e76bedb68a5U, 0xbecc3300bee34c68U, 0xbea3a369bf073166U,
  0xbeee011cbf1e787aU, 0xbf1171e5bf02ddbeU, 0xbf27a4febec3bdbaU, 0xbebd2c75bf193fbaU,
  0xbefdbc6ebe968c93U, 0xbf1e34ddbf06a8c1U, 0xbedb6972beeb4642U, 0xbea65d97bf42b26bU,
  0xbf45bd15beb0ff91U, 0xbf04f198bf06decfU, 0xbed88b82bf7848f6U, 0xbf6637b9bf01d55cU,
  0xbf4231aebef31b43U, 0xbea62d6dbea8a599U, 0xbf2da5d9bf179809U, 0xbf1e28a7beab2ee7U,
  0xbea04320bed367ffU, 0xbed5d308bed99bc5U, 0xbefd208fbf121ae8U, 0xbede92fcbf7c02c3U,
  0xbe8a6c1abe8e76e6U, 0xbf015338bf19823eU, 0xbeeebf9bbf341085U, 0xbee260febee041beU,
  0x3eebfdff3ea9ac17U, 0x3f062ed43ead4bc3U, 0x3f24a0c83eee782fU, 0x3f398b443ec2504fU,
  0xbde6ad8c3f96e27cU, 0xbe3f3370becb00ceU, 0xbf66c0fe3d91a1d9U, 0xbea5d515be3010c1U,
  0xbea2c519bd4206baU, 0xbe7dcc0cbd6ef36dU, 0x3e44916ebe39c923U, 0xbf3c7a45bd8e7a36U,
  0x401c9f93be56c14eU, 0xbecf723a40789f67U, 0x3f41a2d0bf1219f9U, 0x3e788156bf19a307U,
  0xbe8d89c13f0a6f63U, 0x3efe8fe0beb293a6U, 0x3f4ce40dbeab43b6U, 0xbf5881e7bff2e36fU,
  0xbf6571b2bc583707U, 0x3e35504f3e77b1bbU, 0xbe8abad73cd091f7U, 0xbf00f9503f030c20U,
  0x3e7f6c583da3f040U, 0xbd452a2bbb815272U, 0x3ec3a2123b925314U, 0x3e7d46dc3e7adec3U,
  0x3f060ab1bd827941U, 0x3e0547263df3806cU, 0xbd14e318be2ecbd3U, 0x3d2191ddbd2b694aU,
  0x3e705519bec7df5bU, 0xbd9d58b9b9e79ae7U, 0x3cba5cdbbbfa8df1U, 0xbd899b37bed0c646U,
  0x3e3708763f0f7753U, 0x3da8b41e3dccf9aaU, 0x3c60c8b43e01fcd1U, 0x3d7140373d0e45fbU,
  0x3d30887b3df17260U, 0x3f43f06a3d7c8ed7U, 0x3eacd7fa3e188af9U, 0x3e4f42eb3e97c9e0U,
  0x3e4bf4463f1ab40cU, 0x3eb17a453d0fa45fU, 0x3e0c34b73f3c90d1U, 0x3d955d093edc956bU,
  0x3d83d2e13cafdb56U, 0x3f090cc63ddf5324U, 0x3db730de3e9b131dU, 0x3e95dfde3e4b51fdU,
  0x3ec9916e3d89fb73U, 0x3f19e1f73d860355U, 0xbe8385d5bee5f307U, 0xbe5c7a21bdfc344aU,
  0xbe282fabbe20226eU, 0x3d9056b33cb39116U, 0x3f385d1e3d8c13f3U, 0x3d07ac413e1f02f5U,
  0xbeda9002bdb1b7bfU, 0xbe782052be22e96dU, 0xbe59b20dbe8cbd39U, 0x3d5eeff53d85643dU,
  0x3e7a17b63d139dc4U, 0x3d8cdee33d8c9922U, 0x3f3069143f1a55e4U, 0xba23ed0d394a0303U,
  0xba176940b6eb0412U, 0xbdc89e813e24de6bU, 0xbdd397c83dc11b97U, 0x3e08d64ebe08dd19U,
  0x3e0502a93d989199U, 0x3e21d2883df55809U, 0x3e1a5ecb3e6a7969U, 0x3c44ff593c3eff09U,
  0x3b1176453b0de80aU, 0x3b12e335380bd4baU, 0x3eef1821bfa5fd3eU, 0x3daa2e803e8f0dbeU,
  0x3dbc2a983f44d89aU, 0x3f3dc1723b055740U, 0x3ea8de733f2c046cU, 0xbf60b7a2bf0bd6b0U,
  0xbeae694b3f6282baU, 0x3e899448bfd0a190U, 0x3e02fce43f3996acU, 0x3e6b26b13f309fbcU,
  0xbf225e303e4c3ecfU, 0xbe2f884c3dbcf39eU, 0xbee79e07be97632bU, 0xbcb9a3d83e8a280fU,
  0x3d9c877e3e837951U, 0xbe8297f73e64933cU, 0xbeb770ffbeed35cdU, 0xbe8b8ed43d90e630U,
  0xbcc5b970bc1764d5U, 0xbc9afc88bb446eb2U, 0xbd96fe6dbd0ee1cdU, 0x3ca10763bd6bad18U,
  0x3aa47026bd2c59a3U, 0xb9d15d5ebb1020eeU, 0xbb9d619dbb26371eU, 0xbb462e94bab7fd31U,
  0xbb75ac70bb3e3ecaU, 0xbca2d05bbdb4d623U, 0xbdc0917fbdb75f3dU, 0xbd3b149bbd1cab3bU,
  0x3d496d4a3d242636U, 0xbb4be35cbd0b606dU, 0xbb2091d4bb8f5fe4U, 0xbc4a7681bc0196baU,
  0xbc51ee5bbcc8788bU, 0xbcd074013c8efee0U, 0x3d6c006abe3bdbe3U, 0x3e6f779cbebd375fU,
  0x3de6ea143ea44c44U, 0x3baf3bcabdffabcfU, 0x3da6eb1bbdf0263dU, 0x3c23ccc13caa157cU,
  0xbe17def9bdacc2bcU, 0x3de24b253d08bdd0U, 0x3d51e805bcf9a904U, 0x3ed57c45be629cb9U,
  0xbde77b81bd62da0aU, 0x3d75ce063dbd6d27U, 0xbef44011bec6da21U, 0xbd6c8a6c3e2d33d5U,
  0xbde40945bd85ea1aU, 0xbb1d94d5be19609dU, 0x3d3ec6da3ddb943dU, 0x3e186b18be2d8566U,
  0x3e3149c33e32b5c8U, 0x3e9efb63be11cec8U, 0xbe56ab6cbe12e354U, 0x3d7360033ebe5c3fU,
  0x3f1668dcbf4385f6U, 0xbe8aacc93f1e7c7eU, 0xbdb1b201bf1fdceaU, 0x3d9007a03e7a0dc1U,
  0x3e6e775ebcb97a0fU, 0x3e03476fbdab9f1fU, 0xbe11b4da3f1d85fcU, 0xbd8a9c1fbf04a05eU,
  0xbea8adb13ce71134U, 0xbea69884bcebde1cU, 0x3e128a663cd1ac5dU, 0xbf05cb2dbf2ccecfU,
  0xbf043553bf0ff387U, 0xbe940a2cbe4edb9fU, 0x3d31aee93c8b3a8dU, 0x3ce23efc3bc273deU,
  0x3ca409353d499482U, 0xbc127db93cc53e99U, 0xbcbfb1873cd554a7U, 0x3cc3d6253dad7c0cU,
  0x3e0a59863e88290cU, 0x3e5bafd23e624833U, 0xba73fec03dd31177U, 0xbba6c167bb4e4b91U,
  0xba6e556039a6439bU, 0xbafbf05db88247f3U, 0xbc20e375bac8cbafU, 0xbe7b7c34bb7f6565U,
  0xbeb76c67be96853fU, 0x3debd3643f08cc86U, 0xbc8c74ae3f00fdbcU, 0x3f22364d3d7877edU,
  0xbe34b6e8be198b82U, 0xbe6610dd3ea4cc27U, 0xbe610cd1bef36aa3U, 0xbe8591043e9b0eb3U,
  0x3eb270a6bf1eb217U, 0xbeb8c2123e88d50fU, 0x3d1a77593f001e5dU, 0xbf8a45b1bf52eff2U,
  0x3f21168a3ebfff54U, 0xbda694693f2bfd36U, 0xbd7b245abf04f653U, 0xbd68c2c93eacd9cdU,
  0xbd26f1d43f403f95U, 0xbedfd7973f81ac97U, 0x3f2bcc7d3e378f4bU, 0xbf57f993bf3a9f61U,
  0x3f622ba3be9f4a69U, 0xbf2873853ef94363U, 0xbe72509f3f2798c5U, 0x3e2ca03a3e1497d1U,
  0x3f366f50be76cd98U, 0xbf2ab64e3e1b6b75U, 0x3ffed91bbfaa149dU, 0x3f66e6a83df64d2bU,
  0xbf14d58ac010eef7U, 0xbf0686fdc0085d8dU, 0xbf27b4de3e4d9796U, 0x3daa432a3c081b00U,
  0x3b8302bdbccc50e9U, 0xbcca44453d8a11ebU, 0xbac10a78bc287d59U, 0x3d67718fbcd05efaU,
  0xbece02e8bdf6714dU, 0xbe8a3052bdbec60cU, 0x3f0f5fe3bf0bfa4dU, 0xbe5b7b9e3da1e2e5U,
  0xbd92dc31bd56b8fcU, 0xbcff1c02be67e947U, 0xbec4594dbefbb7f1U, 0xbcd4bac2bce9d557U,
  0xbdea0236bf2bdc96U, 0x3f4f96b73f18e224U, 0xbf8a7c1dbeed2412U, 0xbe8440ccbf01b51fU,
  0xbf4a14a2beba0b6fU, 0xbe69a059bddfa2eaU, 0x3e9e88f6bed37198U, 0x3dce3e5f3d72f02eU,
  0x3de073993e59b167U, 0x3eeead7cbd712a33U, 0xbd08a6523f19b877U, 0x3f2d78853ee6dfccU,
  0xbe82edb7be11ef49U, 0x3d70774b3ec98ba5U, 0xbf10fedc3e4ce532U, 0x3f6beaf2bd908501U,
  0x3e257b443f019190U, 0xbf21bd203f57071fU, 0x3d623ba1bf7c7741U, 0xbef731fdbe5ea3eaU,
  0x3e113bd63f0119beU, 0x3d982cc9bf0d70e2U, 0xbd1d44a5be56f876U, 0xbfbfa5453e9afe7dU,
  0x3e6b0f62bf91e8fcU, 0xbeb365f1bec585acU, 0x3eedbc143f936f14U, 0x3f2b4a3c3e985507U,
  0xbe8b5a8fbf60caefU, 0xc034f6dbbfcd962aU, 0x403225afbf04ea4eU, 0xbeb37e36bfc4ee82U,
  0xbe2bab253d7a2f27U, 0xbdf329f4beabac6dU, 0xbee2a92bbe246af2U, 0x3cbc2c2c3e1c4584U,
  0xc01c8003bf81f666U, 0x41126faec13abf0fU, 0xc0db127ac07366c3U, 0xbfcd2d7d40a38b82U,
  0xbf8ab2d3401da8caU, 0xb99585923a39148bU, 0x39fe1d3a39c1ee9dU, 0x3b9b9554b9d555b1U,
  0xbb82b3eb3a58c4c9U, 0xbcf2e3673bbc06bcU, 0xbe97ed0c3ea0294bU, 0x3e9eb992bce94ea1U,
  0xbcada8b13af18b42U, 0x3cdba91d3d153e30U, 0xbd3ad0c2bdcfe75eU, 0xbd3929e2bd435288U,
  0x3e9438623dad1abeU, 0x3ec8cb583eb9cb69U, 0x3dc510ba3f0cd29eU, 0x3f6eed0b3f98ef4fU,
  0xbea7ef71be58746bU, 0xbf0a5087bd1d56f5U, 0xbeba5a373f447bb4U, 0x3f453ebabf8267f4U,
  0xbef18b02be93fee4U, 0x3f37f875bdf49cb4U, 0x3f82206a3f117a1eU, 0x3e0e77683ed83227U,
  0x3f54738bbea3ac14U, 0xbec17f12be93cca7U, 0xbec2cf773f12bafeU, 0xbda39567bd602dd7U,
  0xbe815e993d2f6057U, 0x3d2c5ca63e9f429bU, 0x3ea5c603beae2b99U, 0xbe94ba753dd38e83U,
  0x3d28fe083e756348U, 0x3eae2657be90f63fU, 0xbeadd369bd6db0d9U, 0x3d3515e73eaf1485U,
  0xbca157b7beadf57fU, 0xbe21ff303c6784c4U, 0x3dc2fe82bdd2d6f0U, 0xbdec6ea5be1070a4U,
  0xba6f9026bb9e535dU, 0xbd087987bf608666U, 0xbf8714623f56d7e3U, 0x3f9375393d1713edU,
  0xbe01f63ebf86598fU, 0x3e313cb23f8af2b9U, 0x3ed80b653e33ffcfU, 0xbc1868a4beffcc0dU,
  0xbeaaf6f03e37de73U, 0x3e0eae243d4437efU, 0x3c71c350bfb358e6U, 0xbfd79edc3ff424b9U,
  0x3fcbd918bd67b667U, 0x3e5bc82cbfbaa4e7U, 0xbeb254463fc0eac7U, 0x3eab9a5d3f0ee33cU,
  0x3d3e68963f120766U, 0xbeb66bb9bcd35f96U, 0x3e3dc9103de12e22U, 0xbf03dc6c3e3cabc8U,
  0xbee285023e031e27U, 0x3eb009ec3db3e758U, 0xbf3124dbbe2a516bU, 0xbe90d1aabd2cd28eU,
  0x3e716fdf3eb95b35U, 0x3f46b2f63f294622U, 0x3f0330383f674f7aU, 0x3e9e9b1f3f558783U,
  0xbc9d6a2fbec83a0dU, 0x3e9145b83de6afa2U, 0x3dd48ce43ce17e22U, 0x3f97a56dbd84776cU,
  0xbf29ce9f3e846834U, 0x3dd8f5093e7b4174U, 0x3e21c5a9bf844feaU, 0xbf23032a3db78d85U,
  0x3f1150df3e543e58U, 0x3ed1dee83c0d8932U, 0xbc574ef73eb5de09U, 0x3dc1a4353f403ee7U,
  0xbe3fbe113ed60e02U, 0xbe892ae9bde4b88dU, 0x3d4abd083e377ca8U, 0x3dccd3d73e65468bU,
  0x3d9229323e2fd564U, 0xbe55171d3b27da42U, 0x3f4f37f73e3a1809U, 0x3d2357fb3db3cfbeU,
  0xbd5b03c8bce6b4baU, 0x3e2d50ed3dad9a11U, 0x3c501e20bdf77dceU, 0x3f4e4aa63b3bc006U,
  0xbe26bc163e0da53dU, 0xbce59c22bd0f17e8U, 0x3e629c953ec4df76U, 0xbd61f84a3e05ff71U,
  0xbe7ab4bfbeea4e7bU, 0xbde0cd12bd72cedfU, 0x3e5b64003e1cc22fU, 0xbe133a82bdc9cbfdU,
  0xbf062ed4bf00a2c1U, 0xbf18d252bea08068U, 0xbe7c85e3bedcd267U, 0x3e57c11cbe226967U,
  0xbf3a43dfbefd7404U, 0x3f331251bebefd69U, 0xbe87421fbf13f0e0U, 0xbf5d3150be1bb2abU,
  0x3f0ee4433dac8522U, 0x3f8bdf8c3f9091d7U, 0x3f102733be3028e1U, 0x3f6337893e719ce4U,
  0x3f94283b3f6822afU, 0xbede6e463d752e79U, 0x3f942b48bf15262cU, 0xbe9d4f6cbf389dc3U,
  0x3f1a985c3e5fb4ddU, 0x3ebda435be4d982eU, 0xbf57dff8beed0ff8U, 0xbf8dc9abbf81615eU,
  0xbf51542dbf297ba9U, 0xbf908da7bf37ad00U, 0x3e120e263e605343U, 0xbe84b615bdddd56dU,
  0x3cac6f71bc3f44ceU, 0x3f53b3233d0547f2U, 0xbce23001bf522e4cU, 0x3f76a0b43f55a70dU,
  0x3f364a433eaeb52eU, 0x3e15e5193d389d6eU, 0xbe394759bec4d45cU, 0xbfe7a501bf6594abU,
  0xbf07b0eebe749e5dU, 0xbe0c9852bf435bcbU, 0x3e7f73bdbe97f18cU, 0x3ee911e13d071047U,
  0x3c09eea03fdc3b20U, 0xbf9c469fc008eeb5U, 0x40454e0bc022c52aU, 0xbdb834c5bd337500U,
  0xbe0abb793f225d83U, 0x3d2b759bbdc4530dU, 0xbd840bc93de56dc4U, 0xbe779f5a3eb82b83U,
  0x3ec10b783e770396U, 0xbf0cdd153e7dcaf2U, 0xbde09dcbbe85e7cbU, 0xbe393f22becf3050U,
  0xbe67b1c63ebfffc2U, 0xbf50e773be82585cU, 0x3e0640febd6c52faU, 0x3ead8533bdb1b06cU,
  0x3e60047bbec3f792U, 0xbe693fcebeaf0b4cU, 0xbe7cf9a4bd72b72fU, 0xbee1e1853ae81466U,
  0x3e1b4996be12bb63U, 0x3d905e263cfcd2cfU, 0xbe1d575c3e39bb82U, 0xbeafb04abe7647bbU,
  0xbf1092a0be6a5e5cU, 0x3da5c9c73c96c8baU, 0xbe534ba53eabfb60U, 0xbc940d0e3e8d4e08U,
  0x3ec16b37be998886U, 0x3ead198bbe67ad88U, 0x3e76ff2a3ceb11c7U, 0xbc616ff73daecf71U,
  0x3de18121be25d0cdU, 0xbbf7f416bb9836c5U, 0xbb974340ba71d500U, 0x3bb47daf3b52a13aU,
  0x3e860f24bf252416U, 0xbe9957b83d9dcf20U, 0x3c0a9c6c3df780b5U, 0xbda4f85f3d8eefafU,
  0x3e0b5fdd3da738b8U, 0xbde4976e3e270d88U, 0x3cdb77d43f593284U, 0xbdddc6273e9b83a2U,
  0x3e3a219a3e9bb0dbU, 0x3b88fa203afdf1f7U, 0x3ac9147739e4c1a4U, 0xbbc238ae3b72e952U,
  0x3d187122bc7b3b4bU, 0xbe15dd93be11a078U, 0xbd4f55803e50de2aU, 0xbde652213e14e64aU,
  0x3d5beaac3d246229U, 0xbd4ad9133d832ebeU, 0xbd6706fa3e0963f1U, 0x3c255e463e10882cU,
  0xbe49a1b6be6ee164U, 0xbe3116963e828ca9U, 0xbe032bc93f186cbeU, 0x3e621b683e2b4c2aU,
  0x3ec071683ec28c77U, 0x3ef8def93ccd0640U, 0x3f17b25fbddf3f5bU, 0xbe54e09d3ec27864U,
  0x3f42e81ebde6c929U, 0x3f10c9b1bef9ae47U, 0xbd1134c2bd9b137cU, 0xbc0966ab3c8c0d58U,
  0xbba219dbbcf52905U, 0x3c6c5d3abd8c05caU, 0x3d8bd8cb3cee33d8U, 0x3c851b25bc58aaf5U,
  0xbd5ffddd3d73d000U, 0xbcf648d53ceb52f1U, 0x3c838d0c3c942592U, 0x3d61b68b3c819406U,
  0x3d8dbcd23c1e77ccU, 0xbc3ef545bcdce4d6U, 0xbe1205cd3dff7984U, 0x3dfdef37bd770b5fU,
  0xbc6d0360bd3ce214U, 0x3c993cd03baa460fU, 0x3d4739493cbc215bU, 0x3c3a9aa3bda399a7U,
  0xbc0190323c2f9345U, 0xba77c896bb143118U, 0xbac1f527baf892aeU, 0xbb2270edbbb1f91fU,
  0xbb0268323ad598b4U, 0xbaade6f33a1d536dU, 0x3c034b1cbb158febU, 0xbbc1c766bb8aaaabU,
  0xbad562dd3c364dbbU, 0x3bc9760a38a06384U, 0x3b178fd33911fac3U, 0x3b8135b6bb704972U,
  0xbc3a9bb33b9625f8U, 0x3ab52deeba4eb2deU, 0x3ad63222bc09a7fcU, 0xbb8729f6bb521f0eU,
  0xbaeee1cf3b817712U, 0x3ba64cf1bbd84e0fU, 0x3d0c03d2bd2ec28bU, 0x3d252ecd3bb6685eU,
  0xbd064c653d1e981eU, 0xbc0e5cfa3ca9ecfbU, 0x3d5bda8a3ccfa744U, 0x3db56268bb1cdbefU,
  0xbddcbeb33c9ffe5bU, 0xbcc2e9693aef11b6U, 0xbd6a61793d2263e7U, 0xbdc9a3c0bd878430U,
  0xbdb4a552bdce7c5dU, 0xbe0569edbc2eb38fU, 0x3e2ab85bbd4b6b31U, 0xbd9b7cbcbd8e2323U,
  0xbcea05a93cbe979eU, 0xbe115f183e1609b8U, 0x3db65cb7bcd8ef48U, 0xbc5c2e13bd77cf4fU,
  0x3e15b369be80e087U, 0xbd1b58cd3d25a947U, 0xbd4c80a13e2df753U, 0xbd60f315bb9a921dU,
  0x3df7f09f3dcdf0baU, 0xbbd6fa013d3255beU, 0xbd8a977c3d6b8f26U, 0x3ce42237bcd619d3U,
  0xbdf23cf83dd454acU, 0xbccc24e8babec817U, 0x3e341dbb3ceb0139U, 0x3d46e0c33d601a7aU,
  0x3d8198803da6d054U, 0x3b83511abca161b6U, 0x3cc228ec3bb89a15U, 0x3dc80360bcdac1d2U,
  0xbcff88bfbca9c77dU, 0x3cc991ac3db40cf0U, 0x3d3cc807bd430159U, 0x3d15ed14bd706832U,
  0x3e4ca6c03c622b7cU, 0xbdb220f1bd9e1f45U, 0xbcecb4213b7231b6U, 0x3cd67cb23dab4b1bU,
  0xbdbe0a553a7b840dU, 0x3d5e47733d9f86f6U, 0x3d9e8ef4bda8f1d1U, 0xbd88f062bbd59e88U,
  0xbb2fa9bfbcb3fcd3U, 0xbbd6bd123b1c6c72U, 0x3b4bec203c8db605U, 0x3c85e7d0bb89cf12U,
  0xbd0265ef3c7ac324U, 0xbd35465ebbf64f4eU, 0x3e133b63bcae6cc1U, 0xbd5bc5b9bb8cb3f8U,
  0xbd150b533c8ec2c6U, 0xbb8c55cfbd21017bU, 0xbd8058673c932858U, 0xbd07091d3d788dc6U,
  0xbd80c7bfbda33b04U, 0x3af2d356bcefaf77U, 0xbe10cf8dbc704c4dU, 0x3cc62f903cbac75aU,
  0xbc9010a6bdbdd5abU, 0xbd8f04103c40d452U, 0xbc378197bd7ad86fU, 0xbd51ccbdbd08e4e9U,
  0x3bcf6a593d5cfb84U, 0x3c79bc34bd669cafU, 0x3d0ab6ce3a949425U, 0x3cc042d83ab3e23aU,
  0x3d27af8eb6a05deaU, 0xbc51e9c03c378236U, 0x3a856a593c9d660cU, 0x3d29bb123cbeea04U,
  0xbdf370473e0e58d0U, 0x3da1777f3d1f27c9U, 0x3d40ea11bd6a5717U, 0xbd13cadabc475baaU,
  0xbe00cf773da7e4d6U, 0xbdaa288bbc97ecceU, 0xbdef8fbabc9d6b7dU, 0xbdcff049bddf4151U,
  0xbd43b85d3d46617fU, 0x3d0a0df33d88fef9U, 0x3d38fed43d35357eU, 0x3cd9b899bc1e3371U,
  0xbe6724cbbd10b70dU, 0xbda79b8dbd5a683bU, 0xba8376a93c83716bU, 0x3d90a1963ce3c0f3U,
  0x3d2ba9353c640146U, 0x3a96c3ccbcf2fb7cU, 0xbd85344c3d851ef8U, 0x3de667163e856ce3U,
  0x3b6d10b6bdc0873aU, 0xbe137391bda3651aU, 0x3d750671bd96886cU, 0x3b80d55fbd242205U,
  0x3d68e3f6bcd3a735U, 0x3c64010cbcd4054cU, 0xbdab2fb43dd7154eU, 0xbd16eb29ba45f88cU,
  0x3e0200c9bc8e2f99U, 0x3c607a603c3aa316U, 0xbd75a5a73ca38f28U, 0xbd7dfdf03b955ef4U,
  0x3d1c4a6e3b98decdU, 0x3bf120ae3c4ba48eU, 0x3d9008193b9d7f85U, 0xbd25381ebd2b049dU,
  0x3bb1832c3e3dd6adU, 0x3ccd90a2bb76213aU, 0xbe15f309be10bc65U, 0x3da8edefbc434da7U,
  0xbddb13febde74eddU, 0xbd4077e0bb8abe29U, 0x3d7e6593bc1e83d5U, 0x3d95cf2b3e580182U,
  0x3cb896763d9ab14dU, 0x3ce6e7dbbd110f99U, 0xbc0bc8fabe03bc12U, 0xbcd7dc6a3cd3afddU,
  0x3cd91efc3d6115f9U, 0xbd959810bc2200fdU, 0xbe4ee164bc892b90U, 0x3d3b02b0bb98ae39U,
  0x3d0891e0bd9c9e96U, 0xbc1ffc89bd3efc96U, 0x3d3301993d52f3e3U, 0x3cfb5c593dc695d1U,
  0x3d377f3ebb2d81f9U, 0x3cb6dcfb3cec2e11U, 0xbc39adff3c9aff80U, 0x3d472bbe3cd0a7ddU,
  0x3de273303d386e7bU, 0x3c88b3043d882e8eU, 0x3d6d7b30bd083d11U, 0x3b8367633d5628e8U,
  0x3cd3b7043d380031U, 0x3ce672dc3c44fe95U, 0x3cdc3f133ceee1f8U, 0x3dabf8e3bab51690U,
  0xbc50bd6abc014e4cU, 0xbc242f5b3c06d433U, 0x3b42b797bdb677c3U, 0xbc859405bd442b83U,
  0xbddbee02bdb8f043U, 0xbd2aaa1bbd61d560U, 0xbd431c52bdf5b783U, 0x3bc6da61bcfc46f2U,
  0xbde6df1dba6a6807U, 0x3d8bcd513dc86cd9U, 0xbe1a9780bdb5544aU, 0xbd931674bd863318U,
  0x3d93f5163e04e5dfU, 0x3d06e4ed3ddf9155U, 0x3daad1a2bd8c2377U, 0xbd7ef825bd35fbc1U,
  0x3cef24523d1a966aU, 0xbe0c54c03b399ca3U, 0x3dfc224cbc0354edU, 0x3d244de13c107d57U,
  0x3ceb087ebdeef2a7U, 0xbcacf2eb3cf2cf14U, 0xbe5df0973dd7c62eU, 0xba8ff2e8bd3eee7fU,
  0xbe014189be1d829aU, 0xbdc60a7a3d15f90dU, 0xbc1a9cefbcdb157aU, 0xbaa9b0123ce0c913U,
  0xbdaf2bce3b4a26c8U, 0x3dff04843e89736cU, 0x3ca6d845bbfe1d0aU, 0x3c9109a6bd472db6U,
  0xbdef0d763b0fb256U, 0xbd4c2631bd5f0438U, 0x3dbdcca7bcc05d0eU, 0xbd2371fabd72420bU,
  0xbd73661dbca09ad4U, 0x3cd9bd0dbc41a3bbU, 0x3c9e799c3dab0f47U, 0x3d9d2398bbf66329U,
  0x3d89e401bdfc4804U, 0xbd2b93773d4b9393U, 0xba92ae793d236fc5U, 0x3cfb02cb3d25fe58U,
  0x3d2125863d2d6caeU, 0x3d4c6ef8bd98cd2bU, 0xbd2ade903b9c667aU, 0xbe46d821be1b7affU,
  0x3c9aae82bda3df3aU, 0x3d4a196ebe30f3a1U, 0x3e0c23cabdcbe4f2U, 0xbda82835383cf6f2U,
  0x3d816266ba1efd76U, 0xbe31a5b43daceb3cU, 0x3deee8e73c9155abU, 0xbd9eac053d57b54aU,
  0xbd311992be3f1945U, 0xbd57823e3b9f464bU, 0x3dbc5890bc5e9289U, 0xbd8c44583de8fe0eU,
  0x3d9373963db89bb2U, 0xbd497edb3c390ae1U, 0xbdbc405c3d40e037U, 0x3e6837a23ccfe494U,
  0x3d0bd4693da169f9U, 0x3d67d8c6bdc240d3U, 0x3cedeb9bbdd8d812U, 0x3d506dc73d2db8dfU,
  0x3de8d925bdd20dafU, 0x3dbfac363e1ef149U, 0x3c38a42dbaf0b097U, 0x3c36af64bda01fd6U,
  0xb8872b10bbdd2668U, 0xbda9651abcb5bdc2U, 0x3caa8fc7bd56ad01U, 0x3c5f910e3d29b123U,
  0x3c26b7123d7c2be0U, 0x3d2e2057bd65de2bU, 0xbcdb2264bbe809f8U, 0xbd89f8db3c2e0274U,
  0xbd93cd66bdd20b91U, 0xbd8e6ca9bcd6cefeU, 0xbca42467bd6af669U, 0x3d53aa183d8755a8U,
  0x3a856b9cbcaafa18U, 0xb9f0b37abc936d2bU, 0x3d102a4b3c2ed4f7U, 0xbc9122c3bd0914b3U,
  0x3cd7da9fbb2c48dcU, 0x3d073af63d7d5d2fU, 0xbd5cfcc8bd2138b4U, 0xbd4a618cbd827ea4U,
  0xbd86e989be07944aU, 0xb9fd82c03d8afd98U, 0xbcf8291c3c253336U, 0xbde9ccbdbd8743a2U,
  0x3c8942ccbcb407d6U, 0xbdc94a873c2f873dU, 0x3cfa3bbe3d9deeb7U, 0xbd03b185bcdfcf9aU,
  0x3c17ebc2ba608ea5U, 0x3c56cdbb3ceda21dU, 0xbcf02c4abe38939cU, 0xbd5db6fbbd082a0bU,
  0xbd635d6eba394adbU, 0xbd914498bdd44a53U, 0xbd4a798ebcde2d25U, 0xb76a13963c5b7d17U,
  0x3d849c733bf12744U, 0xbd2926433c1ee35dU, 0x3d9141253d9597a2U, 0xbbfd17ef3cb9bb30U,
  0xbcc4a2d3bd15df10U, 0xbe27bcc7be40351bU, 0xbdac6a8dbab52141U, 0xbb1a14153a9dc37cU,
  0x3dc25264bd6f6297U, 0xbe591ddfbc3a0e06U, 0xba4d5946bc9172c4U, 0xbd69b4063cca2af5U,
  0xbe0033c6be1b3e96U, 0xbd0be23ebe1918d8U, 0x3dc37d553d73c10aU, 0xbe0b3f46bd5bdd4cU,
  0xbda4ecdabd205087U, 0xbdb900b93dbb0b4bU, 0x3dae51ea3d089d6cU, 0x3bb59df23d94ca50U,
  0x3d8d419a3da8fb32U, 0x3ad174753cadc16eU, 0x3d00493b3df0d1beU, 0x3cd254c73df2050aU,
  0xb921e7cabd7fcd6bU, 0x3da040b93acf2c6dU, 0x3d530367bc383106U, 0x3cf6516b3c8fb967U,
  0xbb29bbe6bd805e83U, 0xbd913df2bcbfaa0bU, 0xbd8e20f23c20eecaU, 0xbc4236e6bccbb15eU,
  0x3d862e00bbcd9a95U, 0x3c80692dbce564ecU, 0xbcbd7fb93d03e271U, 0xbdc0fc053ca4fd3dU,
  0xbd6c99a7bb9c16b5U, 0x3d2f4702bc283aa7U, 0x3dc62e073de0b902U, 0x3d213c0e3d1860b7U,
  0x3d032b50be2559a8U, 0xbdceaae7be113ddeU, 0xbd7d3f053bf03ebaU, 0x3c4dbbfcbd0d14d8U,
  0x3e250f3e3d2cb12dU, 0xbd3b141d3d07c18cU, 0xbaf47894bbadf881U, 0xbda2ed52be455c36U,
  0xbdae0ad3bc8b342dU, 0x3ce7dfcb3c6383acU, 0xba0c703c3d935725U, 0xbe0e9d61bc5973edU,
  0x3d49cba7bd60cc9bU, 0xbdcebaedbdfcfd5fU, 0x3e0318dbbcb7cc86U, 0xbccf44b9bb6beca6U,
  0xbcf841dfbd2d3fc5U, 0xbd1d9eabbc27a764U, 0xbda5ac5ebe0f3ba2U, 0x3bc63ea93c6275d8U,
  0xbce78b2cbdb801efU, 0xbc8063cbbca931daU, 0xbc7b6720bc37b9d5U, 0xbdb103dc3cda334aU,
  0xbda30ea1bd1c7e3aU, 0xbbd4403bbc95cb76U, 0x3dc7f2c43d4cbbacU, 0x3d579560bd45e3f8U,
  0xba3271c8bd6bc555U, 0xbcb762373d134fb8U, 0x3c53f3f23ba9f420U, 0xbc131313bcb3d67cU,
  0x3c98fb623beb7d2eU, 0xbc76ad193c8aefa7U, 0xbd9c12b9bd27b2a7U, 0xbe6f6e403e51643dU,
  0xbdc5befcbe2b2f5aU, 0x3e2a8aad3c387a30U, 0x3de36813bcaabb3cU, 0x3d9ad9b73d30368fU,
  0x3d99e209bc9c7279U, 0x3dadec5d3bfd12a0U, 0xbd2e1caf3dc2f829U, 0x3db66c35bd24ae5eU,
  0xbcab90ff3dd3db11U, 0xbd65d6cf3e4ae68fU, 0xbd2eb3ac3d2f3d54U, 0x3ccaf51abda11437U,
  0x3cb01c74bc59bca7U, 0xbd7613a13df69cfaU, 0xbe10dc1ebd99f432U, 0x3deff99dbd99f424U,
  0xbda1bdd3bd0f541aU, 0x3d30df723c7b6623U, 0x3d18c9863ce8da7dU, 0x3db4bcaa3de223e4U,
  0xbb48c0843a1817ecU, 0xbe24775f3b129257U, 0xbdadd1c73bedbc9bU, 0x3dda87073e2863a3U,
  0xbca359533d726387U, 0x3ae1ff603dfb0422U, 0xbc9a66593c160bf4U, 0x3d1a8e85bdb3bdfcU,
  0x3c70489c3d5e166fU, 0xbbfd5b213c9f32a3U, 0x3da328e83b99e000U, 0x3d4bc72f3cb1b884U,
  0x3c99f0bc3cc0a850U, 0x3c1aabc93ccdbe1bU, 0x3d10bda93d4d3d2bU, 0xbcaf2fabbce42658U,
  0xbe5606abbe42f69eU, 0xbdc672c73db14c49U, 0xbd3f6af2bd802451U, 0xbdc7d52cbd8f6e5eU,
  0x3e81d201bdc95350U, 0xbe691ae6bd9a5155U, 0x3d30187cbd9b0d8bU, 0x3d378a123e5ea980U,
  0x3d2c94c53d4662faU, 0xbd372af23adc45aaU, 0x3d9edb733d6a21d4U, 0x3c69528f3b4f1231U,
  0x3e3e1d9a3d1cb48cU, 0xbcfd7bf03e5c21b1U, 0x3e1a88263d9f8aabU, 0xbdea3c223df69303U,
  0x3d32c32b3d057d1aU, 0xbdd40ec0bc2c8286U, 0x3d8267cebe35c43fU, 0xbd00c01a3e35f3c8U,
  0xbc36159a3c8fdde9U, 0x3d77cce4bd20a8ddU, 0x3ca41230bd0d631cU, 0xbc5b2d2e3c85d6edU,
  0x3c99e302bcc95640U, 0xbd80c1be3bdaf17aU, 0xbd1e7e0cbbd361d3U, 0x3b2d1605bd65b547U,
  0xbbd702313d199fcdU, 0x3c175abe3c839b28U, 0xbcf8eabf3bc7eed7U, 0xbc9b1e843c8d8290U,
  0xbc4ba9bd3c15a0b4U, 0x3ccd79713c2cf25aU, 0xbe5de3e63f8f2695U, 0x3d223c503f46732aU,
  0x3ff951a6bf98d7daU, 0xbfab533e4009d9a6U, 0xc05484c6be93ad5aU, 0x401113e640146d81U,
  0xc008e15d3f250829U, 0x3feaa1ca3ef6e6cfU, 0xbfb23298401da31fU, 0x403231c23f988f37U,
  0xbfa83183bd213c04U, 0x3e969a8a401500e4U, 0xbebafdd73fae1347U, 0x3ec4c076bf23f464U,
  0xbf2114fdbf4eaae4U, 0x3e77c17c3f9d7db8U, 0xbe9c72eb3f07d04aU, 0xbd54cabf3dcdf268U,
  0xbe3f65633e517a42U, 0xbd82630a3c9d377fU, 0x3c488f4f3ce3d4b9U, 0x3e8820b73e91a327U,
  0xbe89b35d3e48a9fdU, 0xbd08bcd4beccaa70U, 0xbf2bb64abf1002efU, 0xbfb34ef93d97a7beU,
  0xbe221219bf89a1fdU, 0x3e1bcdd1be967bbfU, 0x3f5bc263be205b9eU, 0x3ee17b3a3fd5e4ceU,
  0xbf097468bfdee91dU, 0xbf28120b3f4d0d62U, 0x3f0e037bbf00d458U, 0x3f92f1483fa9200fU,
  0xbf5a0c123ede2c61U, 0x3ee89da7beef6ba7U, 0x3e6730ffbedf44abU, 0xbf226eb93f871406U,
  0x3ec8d7283e859f08U, 0x3ed2699e3f16fd75U, 0x3f128d103d9a9b12U, 0xbe17e1233ebf1666U,
  0x3e4780193d5e8e9aU, 0x3f09c591be7d8d72U, 0xbf0f39313d9f3be4U, 0x3f447b9e3f1f322dU,
  0x3dc7bd533f737bd3U, 0x3f2da3553ef9a687U, 0xbd0cf0a3bfa7adb4U, 0xbf4a5dca3f1c4537U,
  0xbf569dbbbf1f0582U, 0x3f2b23eb3ea7747bU, 0xc0b6348d3f6e9223U, 0x3fa1440dc155fbbcU,
  0xc1659431c0f27f30U, 0x41754d02bf03ea59U, 0x40d193b540c18602U, 0xbe6732013e8d5b43U,
  0x3b45e0783d9ce06eU, 0xbe4c09b1beb0b875U, 0xbe6638083e742e58U, 0xbe12ebfbbd84a289U,
  0xbeb0f061beea0f64U, 0xbea43b9dbdba30d0U, 0xbe0eb676bd36bcb4U, 0xbd834bd6bd93cbd4U,
  0xbed41725bd128cd4U, 0xbedcb944be8abbf6U, 0xbee78f6fbf647045U, 0x3f00b9823ea98c53U,
  0xbeb73ac43ef3237dU, 0xbf2067433f26ea6dU, 0x3f3b76d4bf459f82U, 0xbfd05627bf521845U,
  0xbf6edade3f4312b4U, 0x3f077f87bf6a3980U, 0xbfa295063f77f50dU, 0x3ffa46233e6b025fU,
  0xbc9fddf0bf21c27bU, 0x3f0f4d893fe520c2U, 0xbd9036c73f4428ccU, 0xbc77be0d3d52e2c8U,
  0x3e336112bf6d54afU, 0xbf5624e93eb6abe8U, 0x3f424b063ecc3cceU, 0x3e4f7ab03f0aee3dU,
  0xbf111f19bef0f8e2U, 0xbf3f00b33e02b07fU, 0x3f7b7484bf69af49U, 0xbf00372d3f462d4fU,
  0x3f8d4a9ebf3cbbb3U, 0x3e410a4dbe09bf8bU, 0xbfc83ae33f9e7da6U, 0x3b8d0462ba587f89U,
  0xbcd1f23fbd8db42eU, 0xbc07f167bc6494e5U, 0xbcb292793c9328dfU, 0x3fbf7fd83b739591U,
  0xbf9576c73f0181e1U, 0xbe6d9d233eacf12fU, 0x3e766c57beef8aafU, 0xbf613adcbf3a598bU,
  0xbf830c47bd67b419U, 0x3e9fc3efbf06985bU, 0x3f7e556cbc751423U, 0xbeb3f55cbdc5a97eU,
  0x3bb8b43b3f404289U, 0xbbe24fca3a6a94f2U, 0x3b8122203ba80d7eU, 0xbd67b46e3e07feb3U,
  0x3e2d040b3d98949bU, 0xbf04bfab3f860cb6U, 0x3f06a260bf8a0f87U, 0xbef2fc98bf200f07U,
  0x3e0e1ae03e931436U, 0xbe508872beb487fbU, 0xbfb33852bea55babU, 0x3ee5952f3f13fbd3U,
  0x3f004467bf9cb87cU, 0xbd7849773fb7b417U, 0xbd667d7dbf810c4dU, 0xbf5b63e23fb6cce6U,
  0x3dff04acbd2e7a38U, 0x3ed11677bf89e470U, 0xbfab02bd3e058a2aU, 0x3fca78d23f597526U,
  0x3f7179e53ff5d588U, 0x3fa24c97bee53f0cU, 0x3d13ba8b3eeb3f5aU, 0x3f4b7044bea463dcU,
  0xbfae09d4bf2674b0U, 0x3f4fb6b23d551a18U, 0xbd0742953ede5069U, 0x3e7323263ed3e075U,
  0x3e3495afbe117323U, 0xbe218aaa3f28822eU, 0xbe1fd5033ecaf0e3U, 0x3da888e33e32cddeU,
  0xbdb4a32bbe64c3faU, 0x3e6939cb3e2621f5U, 0x3dadeed53d6d7edaU, 0x3c9a769abc37ff10U,
  0xbd000515bde7a8d2U, 0xbe382dd33dae73a2U, 0x3a9a883cbe2d26b2U, 0x3f07b578bd86f416U,
  0x3d020e643d0bc611U, 0xbe7e42853dc8c505U, 0x3f10bdb3be66d82bU, 0xbeea9e9dbd6ac5c0U,
  0xbdf514dd3d7e245fU, 0xbe7d00ffbd156bb0U, 0x3e1634b9bd1ebf24U, 0xbd8fc14fbbc3f644U,
  0x3d0801f4be225531U, 0xbdcf0ecc3d4e716dU, 0xbcea81213e8a531cU, 0xbc922020be002f37U,
  0x3e4f7c5c3c8b142dU, 0x3e8c7e933ec96236U, 0xbd408dc93dec3ff7U, 0xbf0494293c24c048U,
  0x3d10fd4c3ee6ce22U, 0x3e48333bbe7a4bd3U, 0x3e49c3453db022c5U, 0xbea01f9cbb3d0d37U,
  0xbbfe6e77be0421cfU, 0x3ddcf8b4bdbdbee6U, 0x3a12e9963e11d700U, 0xbdea479cbe8ff3beU,
  0x3b85ac583d651a3aU, 0xbbdd63283e489d77U, 0x3c7bd8b0bdb5a520U, 0x3da16ed53b765fd0U,
  0xbdd2a5a7be92759cU, 0x3e5e3ea3b9ba3ec2U, 0xbe06e3b83e7b635cU, 0xb9fd2e293c02d405U,
  0xbcd9e5c33c7e412cU, 0xbf15761bbe54d7dfU, 0x3c19c1f1bea2600bU, 0x3c62e60e3e79856dU,
  0x3d91ecfebd5e2d87U, 0x3cc87d5a3c98249aU, 0x3e9d3499be013e1eU, 0x3d273b7cbe649c84U,
  0x3dfc698b3d068c52U, 0x3f0036e8bd9ce616U, 0xbd7de0503f08c8b2U, 0x3ef954323d77f552U,
  0x3cfdd11f3e237cf4U, 0x3de19a2f3ebe65a8U, 0xbb7ab95cbeb91132U, 0xbcf290373ddcd379U,
  0x3f29e6cc3dc70fa4U, 0x3e9ab3e23e318269U, 0x3e15881cbdb807b5U, 0xbe124080be9e18a7U,
  0xbe6b4445bd105ee5U, 0xbe7b9ba3bb60f621U, 0x3df12b4a3e0a33f2U, 0x3a8f9e86bd19018bU,
  0xbd0dee9abcf7d98cU, 0xbd90a6733dc02a22U, 0x3bafd7693e2701a6U, 0xbec1277d3e9cc9d3U,
  0x3d1a9455b9142172U, 0xbe87775cbe338bc7U, 0x3d99e076bcdcdfe4U, 0xbe009d303dba3b9fU,
  0xbe40304e3e997c1dU, 0x3e9547acbdd92628U, 0xbe1e2bbcbe2ea53dU, 0xbe2430c73c98ec57U,
  0xbc85d59fbd5e02d8U, 0xbea44d33be52cb69U, 0xbce928d43dbe52c5U, 0x3c0f04513d1e904dU,
  0x3d71ebe8bc75fa0aU, 0xba1f37eabe2bc3beU, 0x3eb139773dba0aa5U, 0x3d8ff6f33e174a85U,
  0xbeff87cb3d30f013U, 0x3d6c3f9ebe9b2e97U, 0xbd3095cbbd4a5240U, 0x3f0fc9833e316c4eU,
  0x3db298243ed1ee0eU, 0x3da078093dacdf53U, 0x3ee01eccbfab3009U, 0x3f294c57bf48c83eU,
  0x3d748e78bfd3cf22U, 0xbe8af3d43ca32cb0U, 0x3c9e57e7bd82c5d2U, 0x3c5d5d2ebcb48cbfU,
  0x3e1718e43c97b8dfU, 0xbcf23007bd4f1923U, 0x3d8f8d05bed6c050U, 0x3f4dff59bf12ea15U,
  0xbdd04f4bbe750f29U, 0x3ed2c1a0beb07241U, 0x3ea6d9053e401e29U, 0x3e5082ea3e54c8f2U,
  0xbe2c92b33f095185U, 0xbe249a79beb8d08bU, 0xbe0efb7f3dae489aU, 0xbdaacb673db6e90dU,
  0x3e16b931bba13512U, 0xbf2d00bd3f245c65U, 0xbef7d2c0bdbb76ddU, 0xbe6684e23ecde478U,
  0x3ea625ab3ddac956U, 0x3df0a79fbec8f2d0U, 0x3e7cc2afbcbad9d6U, 0xbd7612c23e3c35cfU,
  0x3e7644943da61ad1U, 0xbd19c2e7bd60d9ccU, 0xbe5d351bbca5af33U, 0x3e1e4c74bcb9df31U,
  0xbedd9d16bd8bfc4bU, 0xbd8885a33ef10674U, 0xbe1670eb3dfb46e1U, 0x3e48da513dd8759eU,
  0xbe61e346bea10347U, 0xbe8e7decbdf6f4b7U, 0x3e0dce12bd860e13U, 0xbdc257293e0cd899U,
  0x3e73c536be0b08fbU, 0x3ade4d9b3ce4ac88U, 0x3cfcff64bce5df65U, 0xbcbd4ee43b80fd93U,
  0x3d1d11103d731a7aU, 0xbcf65802bd2f66abU, 0x3da7829b3b98262fU, 0x3ee27dca3e006d69U,
  0xbd706fbdbe804e75U, 0x3e4103333f416fceU, 0xbe352d80bec28f8cU, 0x3e81c534be89759bU,
  0xbeb14bcc3e8076ddU, 0xbe81ffaf3b53c90eU, 0x3eddc7e7bdd9bcadU, 0x3f5dd39e3e324b14U,
  0x3f0040bf3f0ffcc5U, 0xbeace9143cd07a26U, 0x3f202f513ed5caaaU, 0xbdac0b953eb51bf7U,
  0x3e0617203e5f40fcU, 0xbc80072e3f025d6bU, 0x3b2b4430395afb9aU, 0xbadf6af33aa1e8e0U,
  0xb9f73375ba545c9dU, 0xb8c20493b9927887U, 0xbe888ee5be82dbd5U, 0x3c6fff71be55d1a5U,
  0xbf1d90703df348d5U, 0xbe3407263c88b280U, 0xbda2cf16bdd9be00U, 0x3d9b0709bd951c29U,
  0x3d9bd65f3dff32d6U, 0x3deff8ccbc62d4a6U, 0x3c700d513e0e953fU, 0xbdf123aa3e8b8b38U,
  0x3e034d13bf202d62U, 0xbf08bcde3e98ce56U, 0x3e29e340beb36816U, 0xbd64c78dbf2fc881U,
  0xbe25d0e43f0ba83bU, 0x3eab8fc23da02375U, 0x3eb4d283bf1aa911U, 0xbe30b0e23edd3b30U,
  0x3e3ac91dbebea295U, 0x3d704d2a3da1b5c2U, 0x3ebd7a52bdf7b997U, 0xbdb4b9f53c87d414U,
  0xbe2fc859bee4c6a3U, 0x3a63e79ebd5f6eeeU, 0x3dbff229be479a0fU, 0x3e8627893eb96e62U,
  0x3dc44b02bd9e31a1U, 0xbe77743a3c971062U, 0xbe9f2af93d8997a9U, 0x3f0e430cbe91866eU,
  0x3ec8243dbe680cd7U, 0xbea3ea68bde5928cU, 0x3d8f21b7bd60a6aaU, 0xbd85b272be3d4c29U,
  0x3e33a9b13e8276aeU, 0x3e747cb8bdedd9feU, 0xbe9d6e08bbe42a07U, 0x3da32bedbe1b964aU,
  0xbe03f5c33d10ea06U, 0x3d2ef5943e3b4a54U, 0x3e68b548be5b77b0U, 0xbf117a6ebe3c12e6U,
  0x3db4f198bb89fcddU, 0xbe8a5ea9beb6d0a5U, 0x3cff89cabe11b581U, 0xbe11a953be14c13eU,
  0xbd2b5e2ebd84a950U, 0xbe447c2cbe0f9facU, 0x3d001036bdaa3ab0U, 0xbd23a3df3ce3b895U,
  0x3ddb0df23dd5612dU, 0x3cc103983c981692U, 0xbcd27f93bd573568U, 0xbd1712123c844381U,
  0x3c96162a3a913ed0U, 0x3c7c21e9bd5d22c2U, 0xbef533acbe2b1a47U, 0xbe97cc4cbe9bf484U,
  0x3eb418d83ec435caU, 0xbf0fcd93bdd06ffcU, 0xbe57e313bd3664ffU, 0xbe26dc19bec3ab5bU,
  0xbe7bf2373e688491U, 0x3e6bd479be2db6a6U, 0xbc92e5c43bd49f7cU, 0xbcb13c00bc072c61U,
  0xbb15e6a4bbc65f2cU, 0xbd30fdc5bd0bf2b9U, 0xbea24d40bdfb4961U, 0x3ea7dcea3e4ace7fU,
  0x3ef434cd3e95dbfcU, 0x3e862dc33bf3c208U, 0xbd6efc603ca0f54eU, 0x3cbef06abcd34e99U,
  0xba044fac3d1db6aeU, 0x3d3931c8bd1629b0U, 0xbd412c7ebbbab0bdU, 0x3d957418bdc758fdU,
  0x3c5602223e61b2caU, 0x3e2469033de7d83fU, 0xbec072cd3def3d10U, 0x3ee5d83dbe4181b2U,
  0xbd4f4537beec5c49U, 0x3c94cc0abe0d979aU, 0xbe482d6e3dd2f813U, 0x3de71649b9a3e15dU,
  0xbef9470f3e267dffU, 0xbdb524383e103b91U, 0xbe36e6103e926912U, 0xbe343f9dbf4b3e91U,
  0xbd82a17ebeba976bU, 0x3e877b44be247f47U, 0xbeca58fabe3bbcceU, 0x3dd1d2dc3dfb3237U,
  0x3e376e5dbbac1a6cU, 0x3dfe6c7abf28e356U, 0xbc49c6623c434a17U, 0x3c963e0cbbcac9ecU,
  0xbd9687cebc28d2f2U, 0x3d747b773db68438U, 0xbde734ccbe0a52a2U, 0xbe023a283ea058a6U,
  0x3efaf3cc3d11668bU, 0x3e85f7223e4be06bU, 0x3d4c028bbd7ed5c2U, 0x3d6d288abec8699cU,
  0x3e8a27a23ed1db8eU, 0xbe2061eabd76cb0bU, 0xbe97492c3e76c7b0U, 0x3ddb6e48bd358418U,
  0x3e58f7ec3da377d7U, 0xbe62fa683b86b540U, 0x3e150d2b3e7bda79U, 0x3d5c7df3bf854866U,
  0xbe5edcd73c96b2caU, 0xbde2294b3e471674U, 0x3cc0707dbe9837e1U, 0xbf3fcc363f1372f9U,
  0xbe6a2a673ea8a325U, 0x3e8c1d66bed6d38eU, 0xbfd645ecc0d976dbU, 0x40f1fe9e3fe4cc22U,
  0xbfa8c080bfb82662U, 0x3f402074c02a8689U, 0x3e6c2b94bfc76c4eU, 0x3de438fc3f1ef022U,
  0x3e876270bf645eaaU, 0xbf041902bf416a05U, 0xbdbb468e3e040a2fU, 0x3f2a38c1be7a7cc6U,
  0x3dd39c763f3623d5U, 0x3e68d235be5c85efU, 0x3d30d82a3e707bbcU, 0x3e7db7cb3f22147fU,
  0x3e457a783f253b70U, 0xbf730757bf49a2baU, 0xbf0e18593c318bd1U, 0xbedddacc3e9e8b70U,
  0xbef92b0abf657dafU, 0x3f04b5f9400c374fU, 0xbf604fd53f3faf37U, 0x3c3ff379be52f93fU,
  0x3f8e6d6dbf591f46U, 0x3fd1c0e73e298bf4U, 0x3e6a7dd4bf7d240eU, 0x3d146910be5dd60eU,
  0xbe8acbc4bf891f58U, 0x3eac924b3ea4fbc9U, 0x3dd063813db27cbeU, 0xbe00194fbe86517cU,
  0x3f1cecbd3f9fc63dU, 0xbf3195d53a801364U, 0xbdb21128bef972a2U, 0x3f3c0e32bd8d7f54U,
  0xbf882b083dc4dfbdU, 0xbf2b197b3f4ba6d8U, 0xbe2ed9484038a271U, 0xc0204afbbf17a356U,
  0x3ec293703f9c2968U, 0x4011918bbfc790a0U, 0x3e79a05d3db0a784U, 0xbce1855abd95501dU,
  0xbd9b89e13e05e6ceU, 0x3d0faab93c5638c5U, 0x3c57115c3b6e9fc1U, 0xbed23d73bc2364dcU,
  0x3f08e2d03f865ee2U, 0xbe5fdde43f959075U, 0x3f89f711be9e5cc4U, 0x3e363ecbbfe4a010U,
  0xbf4713653f4d7584U, 0xbecfc5a7bedfb765U, 0x3f6ab4643e206360U, 0x3f97d4c6bd98148dU,
  0xbedafca2be3fe387U, 0x3f6fc6b43f20332dU, 0x3f33bbccbe8bd43dU, 0xbe99fb4e3ed2505fU,
  0x3f3020533e3d05f7U, 0xbe7f60dfbe483685U, 0xbe88d50fbe89dec2U, 0x3e7b1cc9bea2ba55U,
  0x3ea1d7cebdef7e20U, 0xbb93ddf9bc821c6bU, 0xbc30f09b3c8e1c43U, 0x3d0c44c7bcb58670U,
  0x3c1c59153c5c2b58U, 0x3f1b80b23c8d1641U, 0x3ef98929bf73e9d6U, 0xbf0fd6633ea528eeU,
  0x3eed61633ed3e0a0U, 0x3f59dce0beb88ff7U, 0xbf1a0842bea53944U, 0xbf4f4252bf14c381U,
  0x3f05ce39bf7695a5U, 0xbe6ceb56bd8b80e1U, 0x3f0f9ce8be2e3b4eU, 0x3ef149113d3f9805U,
  0x3df61ca83f1cbfddU, 0xbf06485a3f014741U, 0xbe672aa6bf400c32U, 0xbdeb03d53d8a0974U,
  0x3ed294ff3f4dea83U, 0xbec98d613f87c5e9U, 0xbf25a42b3e4b4646U, 0xbb3a1656bed9f621U,
  0xbcf9af0e3c91621dU, 0xbdd19881bdb6dc69U, 0x3bf6e0c7bb57f4b3U, 0x3c9661003bca4904U,
  0xbd880fc83fa35a33U, 0x3f97995ebf712bf9U, 0xbf7ece613ed13945U, 0xbe8a34bdbf1237d4U,
  0xbe386f30bf27f0afU, 0xbee79ad8bd63f231U, 0x3e575f2f3b8ffdfcU, 0x3f69614ebf1fe3baU,
  0x3f3e76533e74b4baU, 0xbd2ad3b83ef53f41U, 0x3f497a873ea89083U, 0xbf8edea83e5d4af8U,
  0xbe35adcc3ec59852U, 0xbf7cd8c93f08c8e2U, 0xbfcbb7ce3fae8213U, 0x3fda57423eaa45b7U,
  0x3d1766a23edfa6e7U, 0xbf6532eb3ec7358dU, 0x3f48c8583f2ec7e5U, 0x3eb76333be5517d3U,
  0xbed3f20b3e109c07U, 0xbdc99afc3e988c9bU, 0x3f813c803ea4ae3bU, 0xbecefccd3f5a68a8U,
  0x3e39f1663ed48f51U, 0xbe8ec7fcbf54c8afU, 0x3d820a543e8fbd48U, 0x404146dc40b9a423U,
  0xc0c3e30840b16524U, 0xc0b20d59bf97742bU, 0xbf43cfa8c0b6a174U, 0xbd334f41bfaf0e13U,
  0x3e1c6074bccc21a4U, 0xbdd8bcd13db4b428U, 0xbe0bd76ebe1c8e94U, 0xbd82b6e2be2d2ebbU,
  0x3de28f773de2ddd8U, 0xbdda34f8be5936f0U, 0x3caf2475be441febU, 0xbdce03e23dd7e8fcU,
  0x3e913f24bddddc73U, 0xbf2f6980bf2e8b2bU, 0x3f75e3e0bea7b494U, 0xbf69a10dbf829b8bU,
  0x3effcec23fbb8040U, 0xbedfb6283e7fcab1U, 0x3e97507f3fbac869U, 0x3efbe325bf62fd3aU,
  0x3ed84cd2be89ac14U, 0xbfb40404be6b8431U, 0x3f2eebfabf309dfcU, 0x3e55fdc13c469b06U,
  0x3d997434be73b7adU, 0x3e889221be8942d9U, 0xbf5a7e083f94627dU, 0x4000f93bbed2b594U,
  0xbf3bd3bb3f63b5faU, 0x3ea4d61bc019db05U, 0xbdf0ed6d3f15a65cU, 0xbd0eea723d95e3ceU,
  0xbdf87d9fbec71358U, 0xbd000451bd4245afU, 0xbd7fa4ae3ccf461dU, 0xbe715b26bf510c4fU,
  0xbf988f803f4e0c75U, 0xbdbb03a2bf845c23U, 0x3f8148e33f40cfefU, 0x3e48b19c3f01e56aU,
  0xbf03126cbf2e6d69U, 0xbe07e695becaf792U, 0x3f375c013fa7a857U, 0xbec88811bedcbd6aU,
  0xbf4bda763f242916U, 0xbe2fc60d3fca4dfbU, 0x3e8e76a3bfd157b7U, 0xbf1df5e9becc56f1U,
  0x3f8b941c3e8fef23U, 0x3d83fa173e57dc85U, 0xbf5f6118bf43114fU, 0x3f230310bdec3f88U,
  0x3cb1fdba3e7088c2U, 0xbf8b1a433f72f2e1U, 0x3ee8105bbf193a77U, 0x3f1f8593beaf0773U,
  0x3fb17b673f5caa57U, 0xbf3f891cbf6e1d23U, 0xbed4dc3cbf356828U, 0xbfcaab0bbfd90aa8U,
  0x3eae0c5d3e8584d6U, 0xbe5560213e4aafdaU, 0x3fc7fb7bbf5f3072U, 0x3f695b923e293b14U,
  0xbe796de4be0d8675U, 0x3f01eaeebf8c7403U, 0xbe1e4691bd7dc7c9U, 0x3ebd9aa63f2c4b72U,
  0x3f5b2e5cbf6c1598U, 0x3e0e881f3d912ea8U, 0xbcd8f0983f4905e2U, 0xbd8671f4bc91c6b8U,
  0xbeed486c3c9dcdcaU, 0xbe9a1e57bdb27b4cU, 0x3df0daeabe811fceU, 0xbdeeb2833df8e8d0U,
  0x3e028e2dbeececd4U, 0xbe212cde3d7ef500U, 0xbd702bb0beffa573U, 0x3ea7e6da3e4ca292U,
  0x3e0776643e4356a8U, 0x3f7e1b273ecc7b0eU, 0xbd59bbadbe501a38U, 0xbeb56641be2eeceaU,
  0xbd4c9d9fbdd3f296U, 0x3e817e223e105b18U, 0x3d7f4ab03e755b48U, 0xbd229393be378971U,
  0xbe3dea263da8081eU, 0xbdb5daa0bccea24aU, 0xbe103a7ebdddb618U, 0x3ebfac46be1a67e4U,
  0x3e6b9724bd848ca8U, 0xbe637bdebd058172U, 0xbf005cff3e2ac2cdU, 0x3b9919663e0b8ca3U,
  0x3e5c75be3e02f6ccU, 0xbc7fe39f3db30c8fU, 0x3d025fab3b325747U, 0x3e2bd173bf0a7c61U,
  0xbe8cf09c3d9cdca7U, 0x3c1525333e41bda0U, 0x3e8e794abd081410U, 0xbda2b096bf39f4ddU,
  0x3eaacf213e68999dU, 0xbf1c69fa3e29ba25U, 0xbd47aee13d4a9611U, 0xbe89d712bdb09cceU,
  0x3f330ab5bdf1b898U, 0x3ca42af2bd4f525fU, 0x3e643c533da636a7U, 0x3c761873bdb4da26U,
  0x3ec7ad7abe951d30U, 0x3e3700aa3d0b49b5U, 0xbf669f103d5a1b48U, 0xbd83c33abcbb25b9U,
  0x3ce8cfadbdb8383dU, 0x3ea21ebebec6e170U, 0x3d0cebd03b310b54U, 0xbddcc39abceec363U,
  0xbe1b0b3ebef00ac9U, 0x3e0834d5beac8343U, 0x3b62edb93db00152U, 0x3d4d41893d6c3db6U,
  0xbdfbfdca3e8c1b31U, 0xbd08790cbc2c9b94U, 0x3cca01da3cfe18c8U, 0x3ce6cae93e4b4d09U,
  0x3e77f4ef3ec8781aU, 0xbb925c493df4e1efU, 0x3eb0b2b53dab5e28U, 0xbdc27eef3e9ad409U,
  0x3d9ea02a3bb4fa42U, 0xbc9b904b3dfea5b8U, 0xbe493dc63e50e045U, 0x3d91515b3d9f8dedU,
  0x3cad85ad3cfe1b7bU, 0x3dc225b7be73a0ddU, 0xbdeb52c4bdb3e6baU, 0xbe0260053df30502U,
  0x3e32cddfbeeb2b60U, 0xbe06f6d73e24cf31U, 0x3d9aa54a3eb5c216U, 0x3e4975d6bef16d9bU,
  0xbede6974be65b2b4U, 0x3e11cf3cbc2273deU, 0x3cfbf817bef29666U, 0x3afabda2be8b1980U,
  0x3d4c7b863db1e3ccU, 0x3c2663243e86aecdU, 0xbd9188b83ea0311eU, 0x3c8198f9bdc5c7b5U,
  0x3b80f3073d66aa13U, 0xbe97375cbeb0970dU, 0x3dff7161beb41bd7U, 0x3cba7c2a3d46b5c6U,
  0xbd05f7cfbc1577cfU, 0xbd9657993e2a5f8cU, 0x3d89d3dc3e0ba2e3U, 0x3e6e8bda3e6dc9abU,
  0x3e8648a13d282d52U, 0x3db008df3d38dbf1U, 0x3e790eb03dc22291U, 0xbe2f834f3e2ace10U,
  0xbd75cdf03cf9ac39U, 0xbde573c93e18f5b0U, 0x3d45663dbd16ed07U, 0x3edb17e73f5664d1U,
  0xbd51d63cbe746cbaU, 0x3e6143613dd57765U, 0x3d4285ebbe67affaU, 0x3ddb3df3bddb2c2bU,
  0xbe2dd4df3d40197eU, 0x3e3473cd3ec7eb92U, 0x3edfa04c3d52a014U, 0xbcb1ac4fbda987c4U,
  0xbcbf4204bf277773U, 0x3ebb9ad53e1d5cc5U, 0x3db99aa4be9ee115U, 0x3eabadde3c112416U,
  0xbdc518a33df8b764U, 0x3c8cf31f3e94a0f2U, 0x3dab19d13d61ef78U, 0x3e22b3573dac4f46U,
  0xbd52bff4bd0f95ceU, 0xbdc8b701be6c6e08U, 0xbd9dc0dabe08a30cU, 0x3d90b6103e2927c6U,
  0xbcd9702bbd017d72U, 0x3f1dd913bc7d4ceeU, 0xbe2ad026be18cc4fU, 0xbde436373ebfc4b2U,
  0x3d6e276d3e9c00bcU, 0xbe982f27bea9c8feU, 0xbddfa5bc3db93f7eU, 0x3d3afaa4bddf9c75U,
  0x3d484e03bd3133b8U, 0x3d2b66033e58aac7U, 0xbd7fc36c3ec0213cU, 0xbd7dc1ae3d7856d0U,
  0x3e6dd5133ecb3bf4U, 0x3df1e7cbbeda78a7U, 0xbdf81a4e3c9cb140U, 0x3ef62d8ebcddcb8dU,
  0xbef6467c3f22685fU, 0xbe67f4eabdc1fe83U, 0xbddd5dd1bddab6dbU, 0x3f01df30bee4c3b6U,
  0x3e746dda3e70f5cdU, 0xbe9059e1bee56c11U, 0x3da80daebe9cb61aU, 0x3da3c868bea62802U,
  0xbf119d583f2e035dU, 0x3e37a85ebed42a6eU, 0xbd0668bb3efdf821U, 0x3d37593fbf890f87U,
  0xbda6edb5bd00bf04U, 0xbda18104bef27f95U, 0xbd80b018be827fd0U, 0x3e11360fbd97b9fdU,
  0x3dc78497bd4ada50U, 0xbe9184133e95b961U, 0x3f718dc4bd5dcd0fU, 0xbe72bd153e80c0c1U,
  0x3e35a66c3e774af4U, 0xbe328557bf45b05fU, 0x3cc093d63dd6b430U, 0xbeca37a5be24c4d2U,
  0xbdb1536bbf0b6a62U, 0xbe9c7a27bc102239U, 0x3ecac95abd8448edU, 0xbe64a2d73dd75ef1U,
  0xbdbae1c23defd565U, 0x3e3ff49bbe640b5bU, 0x3e8d07ebbea4b59aU, 0x3d6c03e9be0364f5U,
  0xbf22fe763d553ec6U, 0x3db08e95bdae8e2fU, 0xbba3cce13eb88025U, 0xbd28437e3eb140daU,
  0x3ee423e23e9e763dU, 0xba57f8f8bedc3b32U, 0x3f33fcc13f59d990U, 0x3e9cf647bf63b7e4U,
  0xbec29286bfe82284U, 0xbe7023a93f7c4307U, 0x3e29cad9bd219108U, 0x3cb21beb3d032560U,
  0xbdf1f96ebdef71dbU, 0xbe1149443e40e6c7U, 0xbe0fb225bca245dfU, 0xbeabec83bda16bd7U,
  0xbe55b9003d55834eU, 0xbcd0c442bd87e63dU, 0x3dce0e3d3e6955baU, 0x3cfd29173db864daU,
  0xbd495129bc8db0c4U, 0xbec410f2bd39090eU, 0x3dd0464e3e17cac1U, 0x3d9d25933e292d72U,
  0x3e19dae93ddd7e22U, 0x3b272c2f3c2d8445U, 0xbdbbbacb3d10d945U, 0xbe7081153d86c134U,
  0xbe0bb2523dae16adU, 0x3db9a777bda65fdeU, 0x3d8ce137beb9a1afU, 0xbcf003f83df15e73U,
  0x3d00a643be45a8b0U, 0x3d9f694d3e01bcd5U, 0xbb82fdf7bb0cdd2bU, 0x3c2e30ca398a9738U,
  0x3c1adc553c5b8aabU, 0x3bd251a63bc4fda7U, 0x3bced567badc362eU, 0x3c18291a3bfef413U,
  0xbcb56a71bc83ecb4U, 0xbc19d2b5bcf0fa78U, 0xba77be65b9ee99e7U, 0x3a96ebf03a2d001dU,
  0x39bdd95f3a6cd158U, 0x39869994b8c9156dU, 0x3e167ac63db23bbeU, 0xbdf5a5ea3d2612f6U,
  0xbd410a4f3c908405U, 0xbb9c04f13d63320cU, 0xbe20411cbdc0acdeU, 0xbddd6daebd11ccd4U,
  0x3ca6eedd3d193d2cU, 0x3e358b4e3d944ef1U, 0x3d1bb0be3d0a3af5U, 0xbb55843fbba6740eU,
  0xbcd964f83c730665U, 0xbc880cbebcb1e004U, 0xbd933fac3e838075U, 0x3e746539bd808b65U,
  0x3da938ee3d295f65U, 0x3e32a1053ea96f7dU, 0x3c7aeeefbd10c656U, 0x3c7643cc3d0c742eU,
  0x3d70fc8cbdd23d14U, 0x3e5aad77bdece637U, 0xbcabd1fbbcea75d9U, 0xbb90882f3a05bab4U,
  0xbb7851e53b4debcfU, 0x3ab5ba03bb7e618eU, 0xbe5052e13e22e768U, 0xbe83d40c3d0ebb1eU,
  0x3e2b701fbe2500ecU, 0xbd9819bdbe43ab74U, 0xbc3a1bab3db70370U, 0x3e21b1a63c2994d1U,
  0xbdf24dfdbe1e0ce7U, 0xbc88babbbd6983ecU, 0xbcdab552bccfb952U, 0x3d7046093d201961U,
  0xbd0575343db2972cU, 0xbd2c1923bd719a2fU, 0x3ddae073bd2d204dU, 0x3d7e8f1e3dbc937cU,
  0xbebd17bcbe7e8230U, 0x3ca6a547be2e32ceU, 0xbe21b1e9be1e4935U, 0xbcc486e9bdb75e59U,
  0x3d8a1ed4ba9b3174U, 0xbe51ae3f3de3c847U, 0xbbf37f1abc0eb041U, 0x3e29b2383dbdd36cU,
  0x3d9ca3d23ce836d4U, 0x3d6493643d9fe64bU, 0xbd1ac5aa3d84ba75U, 0xbd23ea20bb63c39eU,
  0xbbb4902bbd89bae9U, 0x3d496bf1be1362ffU, 0x3dbd9037bda808f0U, 0xbc5f19043c8978b6U,
  0x3d3ac360bdbfa445U, 0x3d101a713d3997bcU, 0xbaeaf63dbad4f4d9U, 0x3e04d11d3dd52808U,
  0x3d9aefc33dbda698U, 0x3d48c09e3da07374U, 0xbdfd7cba3c8e3fe6U, 0xbddd6db6bcf8cb9aU,
  0xbe908400bbff69f2U, 0xbdefb28c3d1f02b9U, 0xbe3f6487bdca6b39U, 0xbde68234bdc8607bU,
  0xbe1295b93a823c3dU, 0x3d31401dbd9862a7U, 0xbd82c81abd12db43U, 0xbe088fdebe85da39U,
  0x3de60bc7be05f0e9U, 0x3da51866bd390535U, 0x3d915383bf0659dfU, 0xbd0cee813e9bdb1fU,
  0x3d9fca04bddd6276U, 0xbd719d633e52e5d6U, 0x3e5f854c3efc5d9dU, 0x3f1124ecbeec5388U,
  0x3e6c1d37be22266aU, 0xbeb9d8e9beee7dfdU, 0xbf5650cbbefa06f0U, 0x3e986b64bd5d7f40U,
  0xbeccbdf2bec2e98dU, 0xbe8f72e83e394890U, 0xbe06d98ebe047bb2U, 0xbdda3aa4beea8d80U,
  0xbda725e2becd46faU, 0x3da2c9833d47b198U, 0xbe0c6a0cbe133448U, 0xbcf21e883e207f33U,
  0x3f126fd3bdffdb25U, 0xbecef0a43e3b361dU, 0x3ec3f929be17a4b7U, 0x3d081fb2bef9ee68U,
  0xbf0312463f1bf495U, 0x3e299ab8be8a8b2fU, 0x3d9321413ee9d51bU, 0x3cbf856cbe29f7a8U,
  0xbc75c6d1be522450U, 0xbe0a896e3da00010U, 0xbe619e5dbe2194acU, 0xbe092810bf054fe0U,
  0xbd9964f5be96ada2U, 0xbcf64e1e3e88859eU, 0xbd3c7a6f3c6b2e48U, 0x3e0670413e563334U,
  0x3d52a8b4bd63b800U, 0xbb0335633f12e05bU, 0x3e80d62e3e991d44U, 0xbe386f933dee2655U,
  0xbe2fa65ebd31df2cU, 0x3d3c701a3df76305U, 0xbd58abf1be214279U, 0xbe82dd76bc8eab81U,
  0xbe3c78b3bd85b9c9U, 0x3e3d46713d92ab01U, 0x3e8aa82c3e3004cfU, 0xbd8ceff8bd5ba103U,
  0xbe138f4ebe9f24cbU, 0xbd329e4fbc01dabaU, 0x3d3ffb72bd05d6cfU, 0x3dbf37173eac05d7U,
  0x3e3960123d5ec54fU, 0xbce8a5213e32773fU, 0x3e91af1abe4d79b4U, 0x3da1fc623e3ac53bU,
  0xbe86638f3f60ce16U, 0x3c9d9b303d908362U, 0x3e07091cbcb3287cU, 0xbcad3f20bd3956ffU,
  0x3f22d061bec0c2a0U, 0x3ec7dbdf3eb8e890U, 0x3d63758b3eb16ce4U, 0xbe26d2da3d568204U,
  0xbebc14f1becff783U, 0xbd3449d03d229441U, 0x3ec1bcedbe9904c4U, 0xbe89df74bde97ce2U,
  0xbe4df3e33e3f0b28U, 0x3ec00536be5f23a2U, 0xbd5e5c913f1e547fU, 0xbebf2b06beda8816U,
  0xbe02c2833f0eefc9U, 0xbe2d6c87bf00dfc8U, 0xbe6bb3ad3cbcda4eU, 0xbe94a6113f17c53eU,
  0x3f3b309c3ed4a9c7U, 0x3f4ea2363ead8e75U, 0xbe91fe9d3ecff1a3U, 0xbf1b3067bbaa531aU,
  0x3da948063ea9a268U, 0xbed88be13f1a3ab6U, 0xbef9793bbf4ecd0eU, 0x3e1a71963eb054f9U,
  0xbe46cfd8bdee834bU, 0xbe50f745bd879b88U, 0x3f2bf8313cf5626aU, 0xbf4070e13f6e6427U,
  0xbe4ff58e3e178cbeU, 0x3f9ae670be07b2baU, 0xbe41c5d93fc0c98dU, 0xbf83cb8cbfa7a89dU,
  0x3d0a5d8a3fe4e2d6U, 0xbe665c25bf85ce76U, 0x3e011aa53d5dc92eU, 0x3fa12442bfd20846U,
  0x3cda78773e6c8bb6U, 0xbefa03e7bf42ce5aU, 0x3e7977423eab3cfaU, 0x3ef60c933fec2a27U,
  0xbf825644bfc2b602U, 0x39debebebb0abc81U, 0xbb8454e33b82cbf8U, 0xbab3ad4cbc197f2dU,
  0x3b29d52d3aac573eU, 0xbd1575d03baca7b8U, 0xba70e39d3d1dd82fU, 0xbe460d3ebf486462U,
  0xbeb5ea71be4211d2U, 0xbe102dc2be88b891U, 0x3bd235e7bbb68aa3U, 0x3c9b78813b6f73c2U,
  0x3c98b1ad3cb8d7d8U, 0x3d181cc63d59d02aU, 0xbe82f5aa3cb34db4U, 0x3e04e403be4e05e8U,
  0xbf90ce8bbe5e484dU, 0x3f4f9206bf38bd60U, 0x3fb3ac2d3fb95868U, 0xbdc756f7bf3ddee1U,
  0xbe4f2b99bea70ebaU, 0xbeed18c4bf30311bU, 0xbd1ced113e811321U, 0x3df1b9aa3f2b17b1U,
  0xbda5206abccdae31U, 0x3c395f193c9df039U, 0x3af954b5bd36694fU, 0xbc2a585d3ad73061U,
  0xbf920261be8d8a8dU, 0xbf55bc3abf6606f8U, 0x3f35bba33f1eed58U, 0x3e0edf9abf0a1b37U,
  0xbeb3c5543f46e60dU, 0xbf0e39cabd3c66a5U, 0xbf189d8bbf4d9793U, 0x3f80a9b5be8cdbd7U,
  0x3f66ac4a3ed3b316U, 0xbc40c5e2bbe2e36aU, 0x3c81367cbc30d180U, 0x3c7ffc8a3ca13ebbU,
  0xba9847fa38cc926eU, 0xbed84e01bbb642f8U, 0xbd1113eabec7f31eU, 0x3da16a6fbecd7850U,
  0x3e212a0e3cbce80bU, 0x3f54bcb0bdf41586U, 0xbfd69b25be1d4b2bU, 0xbcc049c4be86b951U,
  0xbf055ff2bdea1e80U, 0x3f23cd923d8021bbU, 0x3da7dc303fa46c4dU, 0xbdae2e37bcbeb859U,
  0x3f29999b3df73947U, 0xbed95a713ec6d165U, 0xbf1e2598bf1ee850U, 0x3eda5a483f009bebU,
  0x3eb39483bfa3b421U, 0xbe4febd93f555d18U, 0x3f1485ee3ec54503U, 0x3f387c44bfa7b596U,
  0xbe3bac7fbfbd875dU, 0x4021627d3f29e199U, 0xbf8c23b73ff92bffU, 0xbe8235adbea0e061U,
  0x4072644b3f2e124eU, 0xbfb317253f01639eU, 0xbfa8acbbbfd14686U, 0xc02d96d6bf29ee3dU,
  0x408b4e6ac0430dd1U, 0x3f3444acc003b7edU, 0x407ae19dbd09e8cfU, 0xbfb43f233e14d4efU,
  0xbfbadaffbeddebc2U, 0xbdb8c005bd65b558U, 0xbda8fcc7bda237c8U, 0xbe71e921be7fea08U,
  0x3e05253b3dd0c388U, 0xba89a0613e28ce11U, 0x3e6fab253e66e44eU, 0xbdc970673dc0b3f8U,
  0xbd368282be041cc4U, 0xbde60ec93e406fb8U, 0x3f2b180c4011cef6U, 0x3e214fc0bfc44331U,
  0xbfadb1f1be5a2111U, 0xc0095035bec9f678U, 0xbf483bc5bfacce87U, 0xbf6e5c2bbe7c6576U,
  0x3f5fef1f3ebc558dU, 0x3ebe148d3ebc3523U, 0x3ec3d9e4be5011d2U, 0xbf1bd2a7be563cc4U,
  0x3f6ba4b7bf05a24cU, 0x3ef53cfebd363289U, 0xbf306dd0bfdd0c4aU, 0x3ef37cf2bde9ba54U,
  0x3f398b403e39050bU, 0xbe8cec93bead590dU, 0xbc21eadbbed02b63U, 0xbf1040c43e9f0a06U,
  0xbe397f7a3e95b1b5U, 0xbea7b8253f1b827aU, 0x3ec52f98be460023U, 0xbda5462e3e1830b6U,
  0xbe597e03bdcc442eU, 0xbda7cdc43f458d44U, 0xbe9a9d183df2c0dcU, 0x3e83cdbc3c8e6afaU,
  0x3e6a80663bc6850fU, 0xbeedffa7bf4a1f4bU, 0x3ecaf383bf243c2bU, 0xbedf9c3ebf87f22aU,
  0x3e0ebc453dbd743fU, 0xbdeddfa23f8c4316U, 0x3c4f2fecbe55695fU, 0xbd9bc8443e1ea845U,
  0x3edf1792be63cf1dU, 0x3cad20923ede13bfU, 0x3de0056d3efad59cU, 0x3e2947873e1206dcU,
  0x3e1286c2bdaa6e93U, 0x3de4502fbcebaefaU, 0x3e8de6423cf57ab5U, 0x3f10a6933ea041dbU,
  0xbe4120dfbf296badU, 0xbe79c57ebf4e4689U, 0x3ee10be13d888a5bU, 0xbbe9e9febcf5e181U,
  0xbe960cb63e320b87U, 0xbf4f45403e9076d9U, 0xbf31b52ebf3d1b16U, 0x3dae6d18bea986b9U,
  0xbf2a7a75bed494d3U, 0x3edb701bbe5cc7ecU, 0x3e582071bead407dU, 0x3e7d16c03efb4845U,
  0xbf042ba6bf7f8aa9U, 0xbe2c71fabf230106U, 0x3d257e403eafa36cU, 0x3f06eeb5be8a96acU,
  0x3f89d7fe3ef5941cU, 0x3e6c18f3becbe4a4U, 0xbee26d8abf9f1312U, 0x3ec2b1463f4adce4U,
  0x3f4735bebf400fd3U, 0x3ec612b93ead3d26U, 0x3fba715b3e3d478dU, 0x3f8975a03f8023acU,
  0xbf78ac3c3f93e0a5U, 0xbbd0c75f401f1d68U, 0xbbff480ebbfcc144U, 0x3c4eac173af57dadU,
  0x3adbc8063cacdd72U, 0x3be319113c6dfc62U, 0x3f51875ebdecc9deU, 0x3d92bb10bea4ffe2U,
  0x3e161a6cbe8e782eU, 0xbe03d91fbd577907U, 0xbee251b8be82bf5fU, 0xbd8512e93f12ed06U,
  0x3e99ddab3e2fc22dU, 0x3ed8854ebcae384eU, 0x3e23b4863f208819U, 0xbf36b398be252ec6U,
  0x3d52ee23bed904b5U, 0xbe6da4ebbe2be534U, 0xbd8021fbbe3a25a2U, 0x3ec2bd153f1304e0U,
  0xbebf3eddbe80e000U, 0x3e41390f3eb2b8a0U, 0x3ed7c3b5be592fbaU, 0x3f8e38263f575999U,
  0x3e8888f73f32969aU, 0xbdb59c90be8fd709U, 0x3f2ff0f0bed7c509U, 0xbe28c298bfafca6bU,
  0xbfa6b5cfbe6296bcU, 0xbdb0e54dbdc212d8U, 0xbe68bd33be08e676U, 0x3b319f6cbe0b361cU,
  0x3f91abc93f1950a4U, 0x3e1284753d85bdc1U, 0x3e90940c3c66c0e0U, 0x3f21fed2be15874bU,
  0xbe36d5523eb3ddabU, 0x3df7ce643e36d9c1U, 0x3f734c0f3eecda2dU, 0x3f8a7a9f3e4676e7U,
  0xbec437ddbe838727U, 0xbeb6e5df3f58e273U, 0xbf1dcd14bf3d2f72U, 0xbe85bcd73f17908fU,
  0xbe75fa803eb656f0U, 0x3d32f035ba5a5a77U, 0x3ead73433ed0dec1U, 0x3ea54f5abd94e932U,
  0xbd8a6632bf0b527fU, 0x3e64e81c3e59c607U, 0x3f04d7cc3e86d4dcU, 0x3f0f28dc3f4ded27U,
  0x3f2d190e3f0ed9c7U, 0x3e97b71c3e2d1534U, 0x3b9856113e90aee4U, 0x3e86aae8bf844619U,
  0x3e612df5be099496U, 0xbe01f349bd918050U, 0x3e8a1c4cbe9b77dcU, 0xbda84de33ecaef14U,
  0xbec31d12bf023f62U, 0xbf235448bf1cb6d2U, 0x3e873bc7be029fb7U, 0xbf6a14e33f30a28bU,
  0xbd867b523ea89c18U, 0xbd26ab263f913924U, 0xbf3c3f1e3f37e01cU, 0xbd252f623e92f31dU,
  0x3d1092cfbed08100U, 0x3d2e5e8a3d71e2a4U, 0x3e2fe0acbe0eb4f9U, 0xbccf1e6c3eb5ae57U,
  0x3e3e6e78bf187427U, 0x3f1634803dbdfd38U, 0xbdb38fb33e442d80U, 0x3f5fc12dbedd4aa0U,
  0x3db266533ed529f8U, 0xbd166352bce28c5aU, 0x3ad2f44fbf0118e5U, 0x3ec09cf13ea04127U,
  0xbf48dd71bf591f67U, 0xbc830ec6be3e7675U, 0x3e31f6a73e173cf1U, 0xbfa0786d3f63a09cU,
  0x3efc340abf73ad50U, 0x3d15ba563f6aa6aeU, 0xbf714981bea8b6c2U, 0xbebba7e33e412aceU,
  0xbe235e39bf5a1c49U, 0xbf771b083f86cd99U, 0x3f91f9e93d58a7beU, 0x3df195b9bf2a7fedU,
  0x3cb710933f9dfb8aU, 0x3f7fb846bcbd3a42U, 0xbe8a2eb9bde5de11U, 0x3ec13dbd3f2c75ddU,
  0x3f0c7b59bdbb760bU, 0xbc959add3d3c464eU, 0x3e3310a2be6ad1e7U, 0x3e13a861beb06078U,
  0x3e286c2e3f578419U, 0xbf7f6df03ef2593eU, 0xbf24d383bf0b410eU, 0xbdfe7ca93eb73dc1U,
  0x3e36b52fbe2ab037U, 0xbe931c5dbe5478edU, 0xbe1c71f53ec92e79U, 0x3e0e588a3b54ec53U,
  0x3e0537063f51bce2U, 0xbb931fe83da1bfc7U, 0xbc845d6ebd1a47b8U, 0xbda1d29ebe91cf20U,
  0xbd04a19c3f04f702U, 0xbf0fb1d2bdb2d1c5U, 0xbdb09c75bf717b01U, 0xbd98c5643f01d2c4U,
  0x3f01227abe96b7e1U, 0xbe479ed53d9d06d2U, 0x3d44c61a3f1666e2U, 0x3c96d66fbf128309U,
  0x3e95e031bdd74ebdU, 0x3e1e60fb3da04eccU, 0xbef067773ee34014U, 0x3f19cd3a3d5b60a8U,
  0x3f49a3323fa98f1fU, 0x3f12614cbd778451U, 0xbecef6913f64908fU, 0xbf8be0d63e0e42ddU,
  0x3df87925bee089ffU, 0xbd15cd9ebce4bf0fU, 0x3a90eeb23e662a6aU, 0x3e8742d2beb9902fU,
  0xbd668553bdbee9b9U, 0xbf00ef0d3e173473U, 0x3d9fa233bfb80e27U, 0x3e0999b3bf03f6a6U,
  0xbf12d8883e855a85U, 0xbe92a0d63df5451eU, 0xbea61dad3ec3a40cU, 0x3d6c295bbef1dffaU,
  0xbe19ceb4bf042221U, 0xbe5e06debed2e325U, 0xbf6aead93f673b43U, 0x3f1954e7be28bf08U,
  0xbe01c3473f7de6bbU, 0x3dc6f3a83f01fd47U, 0xbe245e173d939d27U, 0x3e8088a9bec68844U,
  0x3e5adde83eae1b39U, 0xbd6892833df0e18cU, 0x3e1e63b23d146567U, 0x3da95e323e6d1989U,
  0x3ef876543e2aa0e5U, 0x3f1e41ff3ee146a6U, 0x3ef25c0d3ed1c482U, 0xbe0906e63f6ceac7U,
  0x3d58a9483e96380cU, 0x3e0935bebce4ef9cU, 0xbf0f1d78be095285U, 0xbcb7830fbeb1abeaU,
  0xbd129a983ea14e87U, 0x3e88572cbe1edbf5U, 0xbbdd6dc9bd5995acU, 0xbe41fdb9bcd96728U,
  0x3f887acdbd3b3377U, 0xbf2329933e2340a5U, 0xbb6cd7d0bc9f8cfbU, 0xbc9707e63c727742U,
  0x3c89454dbb09897aU, 0xb9906b1cba47b4daU, 0xb9849b303a41f09bU, 0x3b16f92c3a94a1a3U,
  0x3aa7331dbae8ee94U, 0xbbb442ed3b0db3e5U, 0x3c5850fe3af6912dU, 0x3a27fb88bc0d338eU,
  0xbc110f8f3c74ab6eU, 0x3c87aba23a5a7b49U, 0xbb45d76fbc04049aU, 0xbc29c6e6bc2c64d5U,
  0xbc9cbedebc1abfe3U, 0xbc1e0e73bc1cab32U, 0x3c73c655bc98a1d6U, 0xbcae5533ba879865U,
  0xbb09b2213c791595U, 0x3c7a831abca50fbdU, 0x3e8fb200bdd1bcd8U, 0x3f54a4193f9279b1U,
  0x3f6cf657bfc0261bU, 0xbe99a5fdbf9fb052U, 0xb94df9413b274a8dU, 0x3c90d7ee3c92b5a0U,
  0x3a10e82e3c161947U, 0x3c9fef563c418df4U, 0x3a11d771bcf036ebU, 0xbd87cf123c0e24e7U,
  0xbd62a6febd5fdd68U, 0x3bed361cbbd18702U, 0xbdd64f833e7f65beU, 0x3e0526bbbc929fd7U,
  0xbe366612bc82dae6U, 0x3d8009f4bb8a048cU, 0x3b4d008e3ac9898eU, 0xba96458cbb2805d6U,
  0xbbc6f99b38c8a13fU, 0xbb7e5375bb9dddb0U, 0x3e3ea060be721984U, 0xbe0f55a5bd7c9322U,
  0xbd010f4bbd5766c9U, 0x3db908edbdea4cc0U, 0x3e1d49a2be2183fdU, 0xbe1ef80d3def1b10U,
  0xbdfb2196be6000b9U, 0xbe1f97ba3db29c2bU, 0x3a83380b3b163cf7U, 0xbb835c62bb6ce7acU,
  0xbb762d7dbb7a8fb0U, 0xbb6a0b60bb86de89U, 0xbe056d613d09aad7U, 0xbde0eac4bccc96f9U,
  0xbcdb326ebe5221c4U, 0xbe5ebc99be258a44U, 0x3ca5a3ad3e63239eU, 0x3df5d2fd3e58ebf0U,
  0xbe1d612dbe2de222U, 0xbe25452d3d6640fcU, 0x3b8c4dc43bab0ab2U, 0x3b7613f23ab302e7U,
  0x3a4852d63b48b78bU, 0x3bb020033bc6df05U, 0x3e0926813dde9d33U, 0xb987347b3e34a2fcU,
  0x3d3c80c33d89ca73U, 0x3d42a9cdbd3c3a95U, 0xbd65e26a3e1d2018U, 0x3de3362dbc271653U,
  0x3d5e0f0e3d656938U, 0xbdf28bb83c6caa05U, 0x3baca6243bf4bab4U, 0x3c3c89ae3c5a0a79U,
  0x3b961ab63c861a3eU, 0x3c7ccafa3c205d10U, 0xbbb6bf17bba5403eU, 0xbb4378b3bc073013U,
  0xbb18e12fbaedc5deU, 0x3b06350339b9eb9bU, 0xbda5559d3c5f2ce8U, 0x3c931f313cdedcd8U,
  0xbca51ae5bcbb9217U, 0xbda8ba813d0fa98aU, 0xbb909232bbe92787U, 0x3c15476b3c866aa5U,
  0x3c960898bb80b48aU, 0x3c2478e53c7e2c47U, 0xbd851421bd150edfU, 0xbcc2635ebde511f5U,
  0xbda8a2283d03a4e9U, 0xbe772c33bd6d3acbU, 0x3cb3c9e2bd401bf6U, 0x3cb2391a3d52280aU,
  0x3d38cd8c3b8275ccU, 0x3bf42ef6bc388279U, 0xb79d6e52b6d2e499U, 0x397ef3bb39eefd3dU,
  0xb9b658f538d6b612U, 0xba2cf719b9add27aU, 0xbe223b033e0d6951U, 0xbe74bae33cb934c4U,
  0xbd09b6bdbd5e780cU, 0x3e483d773de87727U, 0xbe597c3bbda7cd1bU, 0xbdd1d95b3e2f9998U,
  0x3c7b0a9b3cf933ebU, 0xbe0c589cbb7cd07eU, 0xbe220fcbbddb24c3U, 0x3d2be73d3cd484e4U,
  0x3e65ab053d110766U, 0x3d48b99abc84e618U, 0x3e59a16b3da2e825U, 0x3d5849d0bdce2022U,
  0x3ea0126fbe137270U, 0xbeb35e2abdf75b78U, 0xbb0f03debdd84b70U, 0x3e275bf43db107beU,
  0xbd039cbabdf6755eU, 0xbd82276dbcdcf3d1U, 0xbf87f2e9be1d4d3fU, 0xbd828da5bda69c66U,
  0xbc96d5c93f2b3ad6U, 0x3e4ad2e4bd596344U, 0xbda51fdbbf147ce6U, 0xbf28e4343f47e157U,
  0x3f209c1abe18e0f1U, 0xbe275c0dbf3d0d84U, 0xbf1bcb963f8a6421U, 0x3f47f6e8bd94be4eU,
  0x3e1b3f5d3efcc8b5U, 0x3eada497bf166f16U, 0x3d65470b3cf419d3U, 0xbd890af83cc47198U,
  0xbd9f749f3d5d65a7U, 0x3e02f758bd4f4c7cU, 0xbc123a203d5f3a8dU, 0x3d3a710cbd1f6791U,
  0xbd63f06b3d2e547bU, 0x3da935873cd67e6aU, 0x3d3b3dbdbde13a79U, 0xbc61a180bd07ddc8U,
  0x3d06c8e23d3fbb22U, 0x3d223c2a3c0259efU, 0xba5853dc3bb1f06fU, 0xbc85f0853b422774U,
  0x3d3d67e33dca5ae7U, 0x3a631f74bd75b62eU, 0xbd38788fbe7d0cf2U, 0xbe12a544bd2ee3bfU,
  0xbd8b44debda4b148U, 0xbd813b2cbdd40751U, 0x3d0fb48b3dfe823cU, 0x3e093f9dbbf1caf0U,
  0x3d82fbc6bc829c49U, 0xbe1912103c6cd7a3U, 0xbc67a7073d69caf1U, 0x3d8b24cbbc8efa60U,
  0xbd19a73fbbe7241fU, 0xbbcc6a813d1a9970U, 0x3b888d2a3d534659U, 0xbc884c683dcd4fe8U,
  0x3d3b7b77bca2c4d5U, 0x3d3e8b273dc386b4U, 0x3d8691fd3d1dbae0U, 0x3ca80d763de16441U,
  0xbcc5e0583c9a4b8aU, 0xbccf5bb4bd1c3192U, 0xbd22e509bcb1fce2U, 0xbcae3c283d3fe02fU,
  0x3c9496523d84e3efU, 0xbcfb7231bc770b26U, 0x3bd8ab1e3d835397U, 0x3be378d13a5fe616U,
  0xbc8cb3b73c2d8744U, 0xba96bb41bc3c5218U, 0x3b886c7b3d27ecceU, 0xbd5cdca13bdd0e97U,
  0x3d57bbd2bcdedd7dU, 0xbcb40765bc8de2dcU, 0xbc574e9b3b985badU, 0xbdac1fae3b865660U,
  0xbdba339abd03ae9fU, 0xbd1d085dbd2af32eU, 0xba3dda92bd1be37bU, 0xbbad4b24bc1541efU,
  0xbd6be92abd120f2cU, 0x3c9191c0bcdbbf3aU, 0xbd82ca88bc881aa3U, 0xbd8cef37bd13583fU,
  0xbcb5fbe0bc6ff3d5U, 0xbda1442f3d41c77bU, 0xbcf0c5cabd1e644fU, 0xbc6744c7bd1a394dU,
  0xbd2087633cf8656bU, 0xbca90f583b537b71U, 0x3bc8e5403cc47687U, 0x3c4c8375bd96400dU,
  0xbbf7cc0cbb20e99eU, 0x3a602b3bba8ddc1cU, 0x3b6cc21bbcc95a63U, 0x3c2e7e983af72318U,
  0xba199e77bc7901ebU, 0x3d29b5f33d86cf55U, 0xbc6ecbedbcdfb6bcU, 0x3cee8813be5550e0U,
  0xbaafb283bc806a6dU, 0xbd20740fbd24d857U, 0x3d0b2de83c734c2bU, 0x3cbdcac8bb82eb67U,
  0xbca5d3233ceb72ecU, 0x3d741b383c2b9f2eU, 0xbe3deb893ba7318cU, 0xbc8f0e763dd26ca6U,
  0xbce377ba3d64806dU, 0xbd3de38fbd402d10U, 0x3c33f310bcf5e66eU, 0xbcda1af73c00bc3bU,
  0x3d8da0043dd77d11U, 0xbe19dcecbcc22bbaU, 0x3ab18eef3b071a30U, 0xbc340bdf3d249987U,
  0x3c6427dd3b660253U, 0xbc17a6fbbbf38890U, 0xbc73efdb3d951192U, 0xbdba941bbc6d7370U,
  0xbcc76e46bda77f83U, 0x3d9ac3f83d05a6bdU, 0xbe893fecbd976127U, 0xbd98abddbdb6e86cU,
  0x3d86c65fbdea627aU, 0xbd741a1b3e848e1dU, 0x3e06f47fbc0676b1U, 0xbdce6354bd107055U,
  0xbe0b16f0bd962a8aU, 0xbea77f34bd4606ffU, 0xbe1bdee43d41497fU, 0xbe6d64bfbe7de42dU,
  0xbe0fda10bc683fe7U, 0x3e08a2d8be0401b4U, 0xbd8eb9a83d222b36U, 0x3c9c61dc3e4b99aaU,
  0x3ea8d25fbdec375cU, 0x3d32ea2c3c06520aU, 0x3cd1cd3a3f0ebbcaU, 0x3cab29dd3df81362U,
  0xbce4f307bcacc2f8U, 0x3c42cb63bc066e01U, 0xbc78dcd7be7c01d2U, 0xbd0832cb3bf106caU,
  0xbda3588cbe163eceU, 0x3ec73dce3e8a7499U, 0x3bd7e5423c6df49cU, 0xbda7471cbc968dadU,
  0x3d623d3b3aceae3aU, 0x3c4510c33d95fb08U, 0x3c0ed6ce3e0cd5c6U, 0x3df9e81fbcdaa718U,
  0xbd892ead3d1211c9U, 0xbc9515213b31852bU, 0x3e19440abba1211cU, 0x3ddcec16bd82057eU,
  0x3e6492afbd8d2edfU, 0xbd919bffbc4ec4acU, 0x3c40a3883b23a2b5U, 0x3c023ecf3c878dd0U,
  0xbd97665dbc30caacU, 0xbd15a2613af73b34U, 0x3ae0411fbd52bac6U, 0x3c913e263c235edbU,
  0xbd1474033a667834U, 0xbc7304dabcef3015U, 0xbd050a51bd1f5a8fU, 0x3defc4d4bcc1a177U,
  0xbd4cc9063dc8e8c2U, 0xbd05e2c2bde1a423U, 0x3c5aaef9bc537ae2U, 0x3df4231bbd9ed686U,
  0xbc7a8cfdbd67893aU, 0xbd134f3b3e92af27U, 0xbc20e9e73e05ba81U, 0x3da560d73eb63140U,
  0x3e3aec13bda4d115U, 0xbb815fb63d5891d4U, 0xbdee53cdbc87294aU, 0x3de8e97fbe2c984cU,
  0x3b2e303dbe223193U, 0x3da0ff8d3da8a484U, 0x3b0426b43d408c06U, 0x3c18b4a33e22724fU,
  0x3db86baabe34bbb0U, 0x3d5101183d63b602U, 0xbc90ccfd3d224b1aU, 0x3d8cba9fbdcf8784U,
  0xbd5e38c8bc4ba2d5U, 0xbb42b1763d78417fU, 0x3ace66c7bddb2d58U, 0xbd6f975f3d313828U,
  0x3b8da338bd910b0bU, 0x3d75afccbdfbf066U, 0xbb72e7043a4075ccU, 0x3ce735cf3d17b406U,
  0xbc2dc068bc101029U, 0x3d5a1c303d9dbeb7U, 0xbb9810863d3a89cfU, 0x3debcf52bd9feb5eU,
  0xbdfc96b5bd8c9d04U, 0x3a96ba8e3dd4b4aeU, 0x3cc0826ebd289ee9U, 0x3b1a77c1be23781bU,
  0xbd5f5b0d3d13b21dU, 0xbd0d0a2fbc6cdccaU, 0xbdda3622bcdb31e3U, 0x3d255b66bdc58931U,
  0xbbbb9f193bd3013cU, 0x3ccd8d2a3ac2a32bU, 0xbbd2e2663c4d0181U, 0x3d00a4663d929ba4U,
  0xbce5ce1aba0136e6U, 0x3d8af71f3cabe855U, 0x3baf6d6cbbecf3c4U, 0xbda19e273d55d848U,
  0x3a8d607bbcd42093U, 0xbc0f5afb3d91b163U, 0xbc0996283bd153ccU, 0xbd149edebd96a5a9U,
  0xbc83be39bbd850b3U, 0x3dc302ebbdd98cc1U, 0xbc9a10fdbd31bc6cU, 0xbd21b210bd0cacd6U,
  0x3ddd37b3bc0fff10U, 0x3dccdbacbd2cd501U, 0xbccd82d53db30a2fU, 0x3e1debd83e52b284U,
  0x3e4d04c9be510c84U, 0x3cd073e93dbb7883U, 0xbc5fd1893e147772U, 0xbc7fd3e1bcd7ed7cU,
  0xbd6098713d967242U, 0x3c167607bcb2dbe5U, 0xbad9e1393c89a53aU, 0x3b7fb55fbdc2c71bU,
  0x3b80f6c0bbcfca0bU, 0xbb6d7958bad6539aU, 0x3ac18ff2bd91601aU, 0xbd0ffdeabbeb328cU,
  0xbdfa75dbbd028449U, 0x3dc2dc5d3c2782d5U, 0xbddece143e282cbfU, 0x3d9629533dc98efaU,
  0x3dd52d99bd91f572U, 0xbd9567dbbbf16c66U, 0xbad24ae23d964702U, 0x3de7cf1fbe4151acU,
  0xbe0a0ac73ddc8f93U, 0xbdf4fa74bb18c893U, 0xbe232d9abe1c62a4U, 0xbdc46d7bbe041c9fU,
  0xbdbf8126bdc1784aU, 0x3daed2babe57718dU, 0x3d8e50c8bbaa8f03U, 0xbc234818bdba1be1U,
  0x3e7bb6473e940f23U, 0xbe192ed1bcca924dU, 0x3da5c4bc3e25d51aU, 0xbd902ad33e99d8ecU,
  0xbc6619663cef88cdU, 0x3cdc61f2bd55df88U, 0x3d16694ebebaba97U, 0xbb684b923d8bf03bU,
  0xbde35aaebe30f454U, 0xbd1ae5f73d4c28acU, 0xbc98e3d0bd1b8d4aU, 0xbc7d34cfbcd7d5bcU,
  0x3da2a01cbd340c9cU, 0xbe0435d13da8a993U, 0x3cc23998bdb3c70aU, 0x3cb446603a876be1U,
  0x3d9506e4bcc31df4U, 0xbd55ec78bd05b2dbU, 0xbc1fd8d0bd3a7d46U, 0x3d154ba8bdf56effU,
  0xbdba8ad83cdb4dc8U, 0xbdc01ee8bd4a0fffU, 0xbdcd5f26be0bf570U, 0xbe0e9069bddd649aU,
  0x3d8d7d2cbd32f10eU, 0x3d5d8cae3d4b0469U, 0x3d9726b93d5346cbU, 0x3d4fc9cbbb3cb5beU,
  0x3e47b1af3d87f7feU, 0x3b6ea9e63de01b0dU, 0x3d3ba2793e8510e5U, 0x3e52b63abda4da73U,
  0xbde01d21bd0b2da9U, 0xbd3e8c1c3d139751U, 0xba9dd337bb06b514U, 0xbb0ab303baabb581U,
  0xbad0f6a7ba83f080U, 0x3bc174c2bb2bad7fU, 0xbbb32a8cba01aa7eU, 0xbbbeea533b7b08bdU,
  0x3ba7d5f6bc3ee594U, 0xbbf2407cbb129002U, 0x39c939cb3904ca08U, 0xb78083cf39d3e88eU,
  0x3989c1283991044dU, 0x39628375361c0872U, 0x39d0131b392e38bbU, 0x3a4dfb3c3a3dce88U,
  0x3a380dab3981e277U, 0x3997fba43a3cefb0U, 0x3a06e18a3a17570fU, 0x3a8bf8803a99fd9aU,
  0x3abcaed939d271f6U, 0xb85c0d5a3a30bc14U, 0x3a15258d3a83ff97U, 0xbb25cb5238b418e9U,
  0xbb961dc3bb615ec0U, 0x3a7f55453a762761U, 0x3bb689a3bbd7abeeU, 0xb963bc2c3beb091dU,
  0x3b342b963af348f1U, 0x3b0825913bbaf1edU, 0x3bc0beb13baa9dc3U, 0x3b502972bb048f59U,
  0x3b9079b93a70fdedU, 0x3bffb3cb3c00f332U, 0x3b254757bb8303e0U, 0x3ad7e2fdbb89f9ceU,
  0xbc66128fbba8e21fU, 0x3bbd2c81ba53a8c0U, 0x37abd77bb93c0703U, 0xbbb0aabf3be1c30fU,
  0x3b907729bba9c7d9U, 0x3c3ba0e7ba449f78U, 0xb9c8030b3c0a7bc4U, 0x3c72575f3c6e58fcU,
  0x3c2687c0ba332e31U, 0xbb9259a23c0ea190U, 0xbb4cd661ba82574dU, 0xbabdd193bb68a1bfU,
  0xbb64f8a8bb5b4f7aU, 0xbb4da2efbaa7de1bU, 0xbc3ede53baf6fb04U, 0x3d39e6f83dde737eU,
  0x3cfce5a7bc93299bU, 0x3b67730f3dca2583U, 0xbcc87b353d12aaa9U, 0x3e575ef13be4a117U,
  0x3e279bd63dc863acU, 0x3e6adbff3e4e1b71U, 0x3e7e35ec3da03c3dU, 0xbc53d36b3dc1b228U,
  0xbc42e1bebe380a91U, 0xbc12aab2bcf07da7U, 0xbd9c9ce0bdbf63beU, 0xbd10cb8f3d05fefcU,
  0x3c38c71abd7780c1U, 0x3d04464f3c954402U, 0xbd6b647ebcc0e911U, 0xbce7b095bd2bbe89U,
  0x3a52e3ee3d72c902U, 0xbc6846b1bcc5ffa4U, 0xbce8ebe73dcc2385U, 0xbdf9f424bd3f76c0U,
  0x3d1ebe60bd034ab8U, 0x3e11611abda4a6faU, 0xbd551962bcf09887U, 0x3c27c4f2be04e017U,
  0xbb494813bd734463U, 0xbb9fc25cbdb66b72U, 0x3bf409673d53fe32U, 0xbdf36a47be369110U,
  0xbddf663fbe673476U, 0xbd87a88d3d00f454U, 0xbd83157a3debfa5aU, 0xbe41ef12bd03b293U,
  0xbe02ea47bd6786e1U, 0xbb3d4ba6be6d4e86U, 0x3d2de9e7bd3f1e00U, 0x3a4601433e6815b7U,
  0x3e1832d93e134c32U, 0xbd382796bc87f19eU, 0xbca457ed3d94b3feU, 0xbb28c05e3e4e1945U,
  0xbc0f92913c31f135U, 0xbb0f8d313b813af2U, 0xba4789e8bd522900U, 0x3d6e84ac3a47ce40U,
  0xbcfaf9803dba3c51U, 0x3d852bdc3e826609U, 0x3cf1341ebc80811fU, 0x3d77c4cfbc0a8a18U,
  0xbcfa833d3d58d1d6U, 0xbcdd887fbe4b8fe3U, 0xbd4063e8bced84dfU, 0xbce937213d1f2a55U,
  0x3d99a684bd5ef059U, 0x3dbbfb103de9444fU, 0xbdd20f34bb4e61c0U, 0x3d42acc93dfc01ecU,
  0xbdbd1701bd2e3a6eU, 0xb8c867ce3d4acf10U, 0x3d5c0d7bbdca3c26U, 0xbe253a87bd95e2f5U,
  0xbe6fc6393d94ca42U, 0x3de58667bdfdcb1eU, 0xbcaa6864bdb8c4c8U, 0xbc94ce9ebe03ca6cU,
  0x3cbaf9dfbbaa0b78U, 0xbb403d61bcbb34a1U, 0x3bccd6f7be16f1e8U, 0x3dec84a53cabfa79U,
  0xbd7d2b5dbda5bcf4U, 0xbdc9a12dbd9bae1bU, 0xbc5df8e4bc09b61eU, 0x3d2c43fbbdd2d78bU,
  0x3e2baca3ba3e8ffaU, 0xbd5041adbeadf3a1U, 0xbba24d553e60da03U, 0x3e1693dd3dcfb65fU,
  0x3c4e7edfbdeae3beU, 0xbde0865e3df2e69fU, 0xbe45c4ffbd679527U, 0xbd1db2e9be748ffdU,
  0xbdd60d703deb4e1cU, 0xbe10ca01be2371bdU, 0xbb13a27c3d004b66U, 0xbc1714133e96611bU,
  0xbd9f3e1d3d9e2f29U, 0x3e8477b83e79eb5aU, 0x3ea364e33ec4d0eeU, 0x3ec5e2873ed07477U,
  0xbd90a8763ea19795U, 0xbcf05915bbdcfeb1U, 0x3ce726e3be3a13d6U, 0x3d8140ad3bd4e90cU,
  0xbc500627bdb825dfU, 0x3b8e49da3dc73749U, 0xbc341711bdce7e1cU, 0xbd271334bd33621eU,
  0xbda584c0bb507b6dU, 0x3c25a2953db1697fU, 0x3ade4a4abb4c053fU, 0x3dc27c7abe24e8a2U,
  0x3d383639bdc46e5cU, 0x3d4b71733df12740U, 0x3e0e2895bd4b3923U, 0xbe188d223bf638b7U,
  0x3e34848fbe083ce3U, 0xbd58bbbfba218ce4U, 0xbc7f26c5bbb792f8U, 0xbc8e87423ddb985eU,
  0xbd3c2a003d919ad9U, 0xbe5cc42bbccb161aU, 0xbce348f2be31d63fU, 0x3c9912fdbda5254aU,
  0x3c875ab53ae28057U, 0xbc5ccc4cbc92d731U, 0xbc741695bce28f8fU, 0xbe304866bc76bc44U,
  0xbd36974abe00d1baU, 0xbc142540be1abb4cU, 0x382cc9cab7c27ab4U, 0xb972fcd1391a40d5U,
  0x3a299f4539d50b3dU, 0x39e595fc39e19ab7U, 0x3a065e7e3a27fda0U, 0xbaa90a3aba70a204U,
  0x39ccdd72baa6bf72U, 0x393e66453a0c29cdU, 0x39d1b43139aca42fU, 0x38e232e539f5d3f3U,
  0x389357943922162eU, 0x38a82326b99c0bf9U, 0xb9595255b851511aU, 0x390d5a5fb49bc8b3U,
  0x38b5d4f6b9378e67U, 0x399babae3a0eae4fU, 0xb95b740f39bb9307U, 0x39d3010a39ae1e84U,
  0x39cccb7c389c97ffU, 0x39dc08cb39dde644U, 0xb9491fa3b9870ef1U, 0xb9863b7fb9772f5eU,
  0xb9018320b909c20dU, 0x37a96b40b830208eU, 0x3cbe2521be1d6bd2U, 0x3dc173a4be51ee8cU,
  0xbcc225323d2d5bf0U, 0xbd13688b3ebad5beU, 0x3d1fa033bd670d1cU, 0xbd10c8d83e291767U,
  0xbbd0a9713b82d1f0U, 0x3ded2df83e4cafdaU, 0x3d8732cebd4827e6U, 0xbd7b40afbd928795U,
  0xbd384bdabdb185eaU, 0xbd00ab69bea0518bU, 0x3de1e98ebdee8b3aU, 0x3dd75c553e1600a8U,
  0xbd0579593d58c55cU, 0xbe57efce3d98332cU, 0x3d02a317be8b9cdaU, 0x3d1a8dd33dac023aU,
  0xbcb30ddf3d487309U, 0xbe701e51be886dc5U, 0xbecd9ce6bdab3605U, 0xbec9e927bebad909U,
  0xbebef341bf11a352U, 0xbe59c355bdd06a85U, 0xbd88d9473c93700eU, 0xbcc83b1c3d68e215U,
  0xbe20a8b3bd830ae3U, 0xbd191ed5bd9b1686U, 0x3cb9e346bdf360c5U, 0x3d58d562bcee3204U,
  0xbdad46193a185f49U, 0x3c8b6647bcbdbea0U, 0xbdbc4d2cbda19e00U, 0x3d10fdabbe00589fU,
  0xbdc1e8833d858d9dU, 0xbc9def52bc25f334U, 0xbd2e243dbe126d7aU, 0x3b1150ffbc62dfebU,
  0x3e0809573cc36abaU, 0x3dbcf23c3da6b05cU, 0x3d9072213e147e93U, 0xbbc3f3e1bc1c4271U,
  0x3c4cd8a83c1fc387U, 0x3c2c7c8b3c441ddfU, 0x3c10608fbbfe774fU, 0xbd3eef393c60dbe0U,
  0xbe8770c9be5d0615U, 0xbe0bdc46be5f2bdcU, 0x3dd3cdc63e1f7aaeU, 0x3aa8284b3dd0246cU,
  0x3d8e219d3d5a36ceU, 0x3d464abe3cafefebU, 0x3caf552d3ce250fcU, 0xbce32cf63d4c78e4U,
  0xbabbb11a3cee009aU, 0xbdae423abd0e9c0cU, 0xbd9bf426bd526b68U, 0x3da609c33d1d5986U,
  0x3de01529bd49efdbU, 0xbc9e3248bcb8dccfU, 0x3c0f4321bca77181U, 0xb9ff54bb3c704eceU,
  0xbadcd225bda6ccf1U, 0x3da36badbb9ae6a2U, 0xbca1274c3bdebba6U, 0xbb61c5f43d8e612eU,
  0x3d7ceff0bd14b2bdU, 0xbc9c33353cb4d671U, 0xbcb768ddbccc017dU, 0x3dee1443bbb7d919U,
  0xbd17afc6bd05ee6aU, 0xbe14f5febd0d9dacU, 0xbd9b597fbdb5ee0fU, 0xbde54eac3b43c44aU,
  0xbe2f0027bdf39ab1U, 0xbe241c68bda46d8bU, 0xbe51633abe450838U, 0x3db29b00bcc1f316U,
  0x3d1973913d0f4747U, 0x3cd8168cbda70733U, 0x3c466525bdc3e010U, 0xbd67a2aebd2989a0U,
  0x3dcde6ecbd3d506aU, 0x3cfa4f7d3db4a026U, 0x3c07d1afbd325398U, 0xbd9121c33b906d8fU,
  0xbd957d203d03946cU, 0xbd77612a3d390ab6U, 0x3d3ae494bcfb0450U, 0x3d833a5f3e1f647bU,
  0x3dd495e43d2ee217U, 0x3dbd31623d1202b5U, 0xbd938265bd48682fU, 0xbd189ae73b88ff12U,
  0xbceca106bdca918fU, 0xbe274d71be226927U, 0x3abbe2803c10882dU, 0x3bc041bf3c395ce9U,
  0x3c4827873b4ef178U, 0xbb349b803bf380a1U, 0xbb57740f3b94f283U, 0x3c322a9b3b157329U,
  0xbb26220d3ab0ea44U, 0xbaf42db93be26ab7U, 0x3a91eb303ab853edU, 0x3a7a036e3aafcb19U,
  0x3a9277be3ad31e97U, 0x3a812ee43a938bc4U, 0x3b3786323ab1c976U, 0x3b6d01153b6c47b8U,
  0x3b7f885b3b4d302bU, 0x3b3592f33b7bdee6U, 0x3b6c09d03b79060fU, 0x3c87708a3c0870a3U,
  0x3c7025a83c50431cU, 0x3c9c6b3e3cc1831aU, 0x3ca36f7a3c33a2dbU, 0x3a9354483c7f1b77U,
  0xbb30c2aabbe5e468U, 0xbb838f293b69d98aU, 0xbcd5fd263d8a4512U, 0x3ceda1febe2d98a9U,
  0xbe04bfc1bc00f733U, 0x3dedf4383e38003bU, 0xbd0151ab3c3f1226U, 0x3d3b913d3ddbaed1U,
  0xbdab8fb23ba2f3e4U, 0x3ce8f6a8bcd190a0U, 0x3bb616293cf2cca5U, 0xbc555a35be2c9bd6U,
  0xbb89a210bdcec828U, 0xbdb3a96fbdde626dU, 0x3c3728ddbcc4270bU, 0x3ba20b8c3cd861c0U,
  0xbda8a105bc9c684bU, 0x3d025376bc9611d6U, 0x3c52fb0bbd660fbfU, 0xbaf01819be509fcbU,
  0xbd3aa33e3d91815aU, 0x3d5c3cee3af92b3bU, 0xbe927f4abd2f3dd0U, 0xbe8fb347be4c1952U,
  0xbe2945eabead1022U, 0xbda8b569bdb6363eU, 0x3d33862c3e8f3700U, 0x3d2d52973d745cb9U,
  0x3d7587853d4e5f49U, 0x3d6911733d86132cU, 0x3d4fa15e3d5dafe6U, 0xbc6a05cdbdc846b3U,
  0xbd6f63babe0e2f62U, 0xbdb6780ebd742332U, 0xbd7148403bb36dbeU, 0xbd3707cdbdd5b92aU,
  0xbc968a7c3bf79ae1U, 0xbd2b45e83c7ea6ffU, 0x3d5d2a923c0c5e55U, 0x3d583e11bb44a3c4U,
  0xbc409eb0bba11181U, 0xbd654dd9bd273de3U, 0xbd265d5b3c3aa2a2U, 0xbd51c5a5bd46fea6U,
  0x3d2f3058bd2f25b6U, 0x3dab1bc23d808cd5U, 0x3df0591a3d638158U, 0x3d2952603da03c37U,
  0x3dd90fdb3dead122U, 0x3cfd4e7fbd5dcdb2U, 0xbcc6e86cbdf21016U, 0xbe64de3b3e1bccaeU,
  0x3e673299bca65df3U, 0xbc710c483c3b95c1U, 0xbd683889be1d9c03U, 0xbe6cd697bdca2c08U,
  0x3dd8b278bc2a98c6U, 0x3df29896be159162U, 0x3d22d7ce3e997b1cU, 0x3e220c1fbe4344e2U,
  0x3c8c38ea3e89fa98U, 0x3df0ea713d135fc4U, 0x3d2664df3b7ac002U, 0x3d2f43da3e819c86U,
  0x3ec23f9d3eb60e76U, 0x3dd8a8c13d54c37cU, 0x3d37eb75be1d301fU, 0x3c4e63433e207833U,
  0x3a8700053cf255daU, 0x3cc0b59e3cf9fbf2U, 0x3d205c693ad7801cU, 0x3b88fd203ca657d7U,
  0xbc84396b3e3a0c3cU, 0x3e5f8c59be604859U, 0x3d67846c3e82d6acU, 0x3ddc0c57be43f4e9U,
  0x3e460e39bc2970b9U, 0x3e9db9b53d1e9d08U, 0x3cd8f03abc889913U, 0x3deb9a553ee3b83aU,
  0x3d61eec7bda8dd8bU, 0xbd921716bca0a226U, 0xbd12bf7ebd150ccfU, 0xbe33c99fbe3638b4U,
  0xbe792e213d94ce6dU, 0xbdb4931b3eae038bU, 0x3c64852b3b9220baU, 0x3c8de1993dbc508cU,
  0x3e5407d6be2b3658U, 0xbde315ad3d79b262U, 0x3d2222153f15eb20U, 0xbe0c09bbbf117f15U,
  0x3d0916543c64b755U, 0xbb7d50993c55fc09U, 0xbd8100cd3ea798d4U, 0xbd3889b33cf3f320U,
  0xbd9d253d3e172d19U, 0x3e812bdebe920a25U, 0x3cb1432f3b65e8dbU, 0x3cd5e1a53cf5b513U,
  0x3d4855593ce56822U, 0x3cb5b7543d29493dU, 0x3d09a9d83d2b9752U, 0x3ba6e41b3bb40076U,
  0xbc6a9ece3aa98dbfU, 0x3bffde7b3ac5d063U, 0xbc569ebcba8fd57aU, 0xb9ffe53cbbc61031U,
  0xbbc8327ebba8f5ffU, 0xbb9d81a93ada9439U, 0x3c7ad823bc57bebdU, 0xbc8c0a2d3b15a6f4U,
  0x3bc3e88d3b6b17f4U, 0x3a799ac73ba010d4U, 0x3b15316f3b237994U, 0x399c4d9bbaf56d77U,
  0xbc50d3af39dcc3c0U, 0xbca10321bc657819U, 0xbaa26b28ba9e35e1U, 0x3c9a3a75bc243f3eU,
  0x3c686e4b3d052bafU, 0x3b6790023ab80abeU, 0x3c7cb85ebd107780U, 0x3caa46e43db7d5eaU,
  0x3d8aaff23d02c448U, 0xbe24ad1e3dd6c621U, 0xbe8b53a7bddc2b0eU, 0x3d7d001fbe095746U,
  0x3de2bd1cbde03443U, 0x3e3fce7f3e9f2575U, 0x3d852afc3db83511U, 0xbd343642bdd9f79cU,
  0xbd305a6b3d036953U, 0xbe6a422c3e18d58cU, 0xbcb1becbbc18cccfU, 0xbc10a9013d5a4bb2U,
  0xbe2dae0e3e052b86U, 0xbd74214bbca132e8U, 0xbca86831bd0535d3U, 0x3d8068193dd8febfU,
  0x3cb7e4043d11ba71U, 0x3d29cf053d684bbeU, 0x3de51b323dfb9648U, 0xbe9c06303da63869U,
  0x3ddd8c3a3d06fc51U, 0x3ea6d0703c4b9f20U, 0x3d95e62e3e07ebaeU, 0x3d925aba3da19908U,
  0x3d99b8c5bd0e7c86U, 0x3e0e87403d92e747U, 0xbd8b83ddbe100995U, 0xbded25013dc2d172U,
  0xbb1129583d310bc3U, 0x3ce19001be0c04d4U, 0xbea47181bac62bccU, 0xbe0682efbe69af32U,
  0x3d46d701bd72fe24U, 0x3d6c01b33ca901c0U, 0xbd2b3fb53d15ed08U, 0xba62b29ebe0a5b9fU,
  0x3dfb5915bdf53dabU, 0xbe12723ebc12f450U, 0xbd9fa0c53d3df49cU, 0x3d97b53fbdc52208U,
  0x396267473d2e9675U, 0x3e4224b93e0a3ab6U, 0xbac32bd33d20bcbdU, 0xbe5e4068bc5b6295U,
  0xbe2340a73e51f2e2U, 0x3ecd0bc43b84ac78U, 0x3c949c2c3c1bda82U, 0xbdacd1b8bd9e71c3U,
  0xbce03ad93b8e93eeU, 0x3c889d823e0ca947U, 0x3c9b3a2fbc01ebf9U, 0xbe62b615be1bd499U,
  0x3c52c396bc9e8df3U, 0xbd6a8b82be04aed1U, 0xbda03c87bd45779eU, 0xbd7932213c86195bU,
  0xbd7a28a3bccf25d4U, 0x3db954d63c63b86cU, 0x3d04c2ed3cffd0dcU, 0x3c9965983dc81791U,
  0x3e395e673e33ef24U, 0xbd851b5b3c502bb4U, 0x3d7912f2bded65faU, 0x3ddcc9f6be4ae65eU,
  0xbbab63dbbd763444U, 0xbd0caff7bd066f28U, 0x3cc8a0b33deba120U, 0xbc61adaeb8ec5717U,
  0xbde75cf43d6e46b4U, 0x3c09bcd7bcbe944dU, 0x3d1b0f3c3dee37e1U, 0x3d32d627bc977677U,
  0x3da80b13bcbdfaceU, 0xbd7a20bcbd79e9afU, 0xbc888feebc5e1631U, 0x3d0aff3dbb93cf6fU,
  0x3d6eb7ba3d769ddbU, 0x3cb141323d1b147bU, 0xbd2713bbbb5ac419U, 0x3c157f493d85a2e3U,
  0x3dae50b7bc0bd60fU, 0x3e88419b3d47fd6aU, 0xbd0b85143dffad33U, 0xbd5a5591bcc0cd44U,
  0x3dd318d8bbd65f37U, 0x3d5afc6ebb24b7aaU, 0x3c7c8ec43d1e93e9U, 0x3cce9e5cbc978593U,
  0x3bca157f3cdd91ebU, 0x3c9a6e033c605153U, 0x3c515a4e3cc72b02U, 0xbd8cf3c83c8e5f44U,
  0xbdb8d9b0bd9fe936U, 0x39fa48823d861536U, 0xbd775553bc144a8fU, 0x3d7998443d248761U,
  0xbd52c167bc13e885U, 0x3e623730be98ded4U, 0xbd63e37f3e14413dU, 0x3e10a1da3e2231daU,
  0xbd5c72ef3e131b7bU, 0x3d47f5253e2fdd87U, 0xbcc90b06bda17989U, 0xbdd0dd38be30db7fU,
  0x3c9056233da3aa8aU, 0xbe29b9a23d00b65aU, 0xbdd09c7a3d09de83U, 0xbd2e4911be1c115eU,
  0xbed24eb9be11f168U, 0x3b41650bbdb16f6cU, 0x3d77c31abec22129U, 0xbb13d5abbdcb68c6U,
  0xbd225c33b9bc2342U, 0xbced2f27bc83dfe8U, 0x3d3e798c3df1be13U, 0xbe7a46163d65e4b8U,
  0x3d9c11ebbd7c2a46U, 0x3e1a4c863e02e178U, 0x3b863bf53d61c5aaU, 0xbd9b2a0a3b8516b8U,
  0xbccf21b7bbe7f0ebU, 0xbcf60f11bd52f12eU, 0xbc03bda8bcc93efeU, 0xbcce28d3bb4033d8U,
  0xbd19c6763d4f5ebfU, 0x3d87be30bd6b09ebU, 0xbd8bd1df3da03a0dU, 0x3d269a953d01fcdcU,
  0xbd1a7a8dbdc8af50U, 0x3c17f1eb3de5fed5U, 0xbc51e8fd3cf9c3e7U, 0x3b7803bbbcf22e0bU,
  0xbd33bfe7bd2ce488U, 0xbd942699bc9dc7c0U, 0xbbc240b3bd20dbedU, 0xbc76171cbd49d63aU,
  0xbcfc5c9dbc8445abU, 0xbd050045bc697785U, 0x3c7b0376bdaf94e5U, 0x3c41910c3c4eeb03U,
  0xbd82ef59bd0a822eU, 0x3cc5f861bd7cfe77U, 0x3d854f9fbbe4285bU, 0x3dee1f49bd0d97ceU,
  0x3e0ad44c3d2adaa0U, 0xbe25f3be3d61db0fU, 0xbd726128bda9a410U, 0x3d46c54cbc36fce0U,
  0xbc0a4fe33df2fa9cU, 0xbd27fc0cbd11f539U, 0xbcb1e92e3d9add54U, 0x3d13e1b93d9f753fU,
  0xbdcc5f6c3e74b3a4U, 0xbe104e05bdd8ce84U, 0xbc8b7208ba78e5d5U, 0xbc0a6b8c3ceb8b21U,
  0x3d47cde13e0ecf08U, 0x3da80330bbda8f91U, 0xbc060a25bcc9a309U, 0x3d8516623e318571U,
  0xbd23678dbd8fcd60U, 0xbd274019bcba19f1U, 0xbc1988873d73730bU, 0xbcf312fcbce155efU,
  0xbd91d404bdc652fdU, 0xbc4110973eb23cc8U, 0x3d1ee8e93d001b68U, 0xbdb0b2ff3d1067d7U,
  0x3e0ad7e9bd7c43ccU, 0x3d1017aa3ede148dU, 0x3aa2da0cbe36a514U, 0xbd897ce4bd65258dU,
  0x3d280c133ddb1562U, 0x3c85ae03bc0f05a6U, 0xbd6028ddbc6239e6U, 0x3c3b5ffc3cf3a7afU,
  0x3d4d8a8b3d330d5cU, 0x3dab1a393c9e4cf0U, 0x3cf9d18a3b908699U, 0x3d412a63be108a8cU,
  0x3ec0d1f63eb03cebU, 0xbe0044bb3c4f088fU, 0x3b892b8fbed4a0f0U, 0xbe4fb3b5be8c8358U,
  0xbab731fcbc6cfe35U, 0x3dcc4355bdfd5b64U, 0x3cd855fc3dfc384bU, 0xbe436cd53ceff56aU,
  0xbe2242883e88dd63U, 0x3e7f61cebe231b98U, 0xbc613f0c3c75935bU, 0x3cb2d762b9c757ceU,
  0x3d25f089bb51ef16U, 0xbc34799fbcdc7274U, 0xbc4cb3773d37a4cbU, 0x3dd2269c3d401d86U,
  0x3ddb857bbd5813a0U, 0xbe32fc5e3e2bcc92U, 0x3e1157f93d3a7e62U, 0xbd5bcb07be0441ceU,
  0xbdc7326bbd931f19U, 0x3d1e46063d864007U, 0xbd54e7f0bad6a365U, 0x3d91d2edbca6098cU,
  0xbd5164b9bc534bf1U, 0x3dbd31d43cbe42fbU, 0xbce05d98bd601592U, 0xbc713d823d322dc3U,
  0x3d8005e6bbfa664fU, 0xbd897fa0bd72e9f4U, 0xbd9a30163ddd038dU, 0x3e0a28abbdbdf7d0U,
  0xbd4805cdbdb67188U, 0xbdb3abb03d88bd8fU, 0xb88d0030bb03478bU, 0xbb1ea878b9b652f3U,
  0xba1a09abba28729dU, 0xbb0978febb6017e9U, 0xba2b21ceba8a3758U, 0xba8608d2ba5ba855U,
  0xbadd1201b99d86e0U, 0xbaad0264ba616ba7U, 0xbbf4f5bcbb9cf89eU, 0xbc940f4c3c98713bU,
  0x3cebe93fbca71ef0U, 0xbc93c9edbc5a773fU, 0x3b5c3af63cd58820U, 0x3b0053863a88bcd8U,
  0xba3b285d3b42b033U, 0x3ad754013a7a055eU, 0x3aa4bbcfb880f967U, 0x3a9661943af1f200U,
  0x3a7ecdf23a57f17dU, 0x3a1b4fff3a576d0bU, 0x3a11b7c4398d7281U, 0xbba3bec33a004668U,
  0x3b54deec3b09a961U, 0x3b87a456bbd47d18U, 0xbccce0873c888f9dU, 0x3c28cdc43c16dfbcU,
  0xbb60817fba5322c5U, 0xbaed2ed6bbfce8daU, 0x3bbf5031bb1182b6U, 0xbb6e98c03b057a2cU,
  0xbc9a9f7aba410b97U, 0xbaaba868bc973db6U, 0x3c290df7bc0aba4eU, 0xbb93db233c33fd3aU,
  0x3ce23d303c20dba0U, 0xba42815db9cb2b2aU, 0x3bdc41a5bc8bec48U, 0xbc1abfcb3b87f4dcU,
  0xbc015105bab30ad8U, 0x3a69b23abc9ad304U, 0xbc748a7db9cd2935U, 0x3bd121be3c25b94cU,
  0x3c08dde9bc952160U, 0xbc6cdda73c133344U, 0xba9ef742bc65c4c6U, 0xbcb48fa03c1df6e3U,
  0x3be88f5fbb81faeaU, 0xbb7a378abcbc14daU, 0xbf826857bf59fe88U, 0x3f1df4363f36036cU,
  0xbf291cb83f63b239U, 0x3eefb878bf3d2a6cU, 0x3e9cee483d990d69U, 0x3df1dd2abe9a3adaU,
  0xbfb20b5e3d0bceffU, 0x3f84d1ec3fd939d8U, 0x3f7188b63f5aa040U, 0x3f0356a2bdeaa898U,
  0xbe7afa583f3309dbU, 0xbe85f68c3f80beb2U, 0xbe33b5023f488febU, 0xbf6f995cc0063d22U,
  0xbec50989beee8a4bU, 0x3f0506673e2fa49aU, 0x3fa64910bf333c72U, 0xbf258ad13eb22d66U,
  0xbf46db99bf601ccaU, 0x3dab17043ee9d28dU, 0xc08d3f7040ff25ddU, 0xc04f239b4029fad5U,
  0xc12626f0c0ffa137U, 0x3fcefbc43f8c9a8fU, 0xc00711b940139c70U, 0xc0b61178c06dab64U,
  0x3ee6d024bf8775acU, 0x3f538576bfa37ecbU, 0x3f44370ec0091bf4U, 0x3dbdffd5be64db3bU,
  0xbfdf95d23fc495bdU, 0x403437753eff6895U, 0xbfaf8d76c058f154U, 0x3f7777ad40080b40U,
  0xbfd5fd453eb47a22U, 0xbecccf4f3f14f46fU, 0x3f1e01edbf041229U, 0xbd01bcbebe2f6c13U,
  0x3d12daa1bd746619U, 0xbf0f20cfbd78f2dfU, 0x3f19d78c3ec782c1U, 0x3ecb32aebf16c0d3U,
  0xc011fee43e9fcf68U, 0x3ffb05cc3dd78fd9U, 0x3e37f2dc3fbc3e7eU, 0xbefc6dedbf910371U,
  0xbf686be4bf4722e6U, 0xbefe9578bd8d5981U, 0xbf412e4b3f1cd850U, 0x3f657a1ebebf13c9U,
  0xbee6dbf0bf1f5d59U, 0x3f9a5fc03f413805U, 0xbec1ce363ebe3b83U, 0x3f262f6abe8cbb3eU,
  0xbd28afdcbeeb6420U, 0xbe9dd4fe3efb00a8U, 0xbf26bfa1be1eede4U, 0x3f2a68b5bfc7e51dU,
  0x3d11fd4e3f076448U, 0x3f0ce9e73fac7b65U, 0x3f8c0f66bd817f70U, 0x3f248785bf2b89f9U,
  0xbf10d2f93e4af1bbU, 0xbe8b2b423f828b8dU, 0x3fac4539bf0bb175U, 0x3f7f9a923fe6771cU,
  0xbeda057abfd4bd83U, 0xbf248c203fc089d3U, 0xbd7c7eebbf0605acU, 0x3c976eb4bf565482U,
  0x3baa7172bb7fa625U, 0xb37a4d2b3da55e18U, 0x3de2fdbcbdbbec68U, 0xbdd46d793bf46bbbU,
  0x3c2746e33e32d411U, 0xbc0d9878be27d99fU, 0x3ad68ef6baa242afU, 0x3a173ddbbc06b8f0U,
  0x3f19c21cbaa632f4U, 0x3dd8dd03bf4945f8U, 0xbd92888abf045fafU, 0xbfa891bc3f4b8399U,
  0x3f04f967bd9a2598U, 0xbf2e4cf5beaba72aU, 0x3dcf0cf13e9edc64U, 0x3f852736bf087162U,
  0xbfc4f22d3e3aec61U, 0x3dcd285d3f80d06aU, 0x3e0e146abe0462feU, 0x3da056623f533f77U,
  0x3f9c3473bf20dcd4U, 0xbe8d3409bd1d9b30U, 0x3edc8bf0be4d1a5aU, 0xbe45230cbe42d10aU,
  0xbefd5592bebbb918U, 0x3d6eb9a5bee2df0aU, 0x3f0447f13e82021bU, 0xbea84741baa248eaU,
  0xbe4842333f687d15U, 0x3ed568633f0d3487U, 0x3f6e87473df43c90U, 0x3e2bfa503dea53cfU,
  0xbc59e70a3dfe68eaU, 0xbda243a9bd78ad89U, 0x3d188f553d5cf0dcU, 0xbecc7803bc871ff3U,
  0x3f8b46b1bf56d1c8U, 0x3ff5106dbfa09531U, 0xbe99b5f43ffeb803U, 0x3f68c7b93e34ba78U,
  0xbed92d073fb41564U, 0xbf1ff4173f58a52eU, 0xbe9a51af3f6935bfU, 0x3eb1f4f23eb09520U,
  0xbf23febe3f1fed4cU, 0x3fd04a523d2ae4d0U, 0xbef18620bf8fe8e4U, 0x3fb6d374bf6fb87cU,
  0xbe7b524d3f76a085U, 0x3ea5a2943eaf2885U, 0x3e7df1c83e3d3c77U, 0x3ea91ec93f42c4fdU,
  0x3e58e902bc4f2651U, 0xbd9a1e9e3f43b153U, 0xbda50682bd58189cU, 0x3cc292fabd04c071U,
  0x3d818764bd8836bbU, 0x3d286b613deecbabU, 0x3f5600eabf363d8bU, 0x3fb67035bf1866ddU,
  0xbf588d863fe956acU, 0x3f6a64e73d72c874U, 0xbc774312be6b971eU, 0x3d8e35d03e86d74bU,
  0x3e9172e03e26fe0aU, 0x3e1f85673d806178U, 0xbe14b03d3da90a10U, 0xbf9e48dfbf30bf6cU,
  0xbf1d17c8bfa91d58U, 0xbf5636123f5865ccU, 0xbf72ec91bec02c74U, 0xbe6e19223e9d064fU,
  0xbecb7d4a3ec276ebU, 0x3f0b7f8cbdeb7e41U, 0x3bba9aa6be4e0827U, 0xbe8c4c063f213591U,
  0x3e3d9811be76243dU, 0x3e65f5333f9f7e4fU, 0xbdc13d423f215807U, 0x3f5a52ac3f6d53f5U,
  0xbf6b9f56bf795edfU, 0x3e8285863f9229f6U, 0xbfa680de3b779282U, 0xbe81a3de3fc3c33bU,
  0x3f3f9428bfc4879bU, 0x3d33eb99bbd093d2U, 0xbde4c635bda1559eU, 0xbe07c174bf22d17fU,
  0x3f28baef3dcfefb9U, 0xbfa560d23f44dcc0U, 0x3eaf38cfbfcd3debU, 0xbf1f42c2bf73c9e0U,
  0x402059c03e04d50aU, 0x3f8ec7213f573349U, 0xbe12fa35bd88da98U, 0x3e8221d33e220123U,
  0x3f45577b3f60a16eU, 0x3ef5309b3dcb1c61U, 0x3f55471b3f283bb8U, 0x3c2e02f03eeeb8f7U,
  0xbe8cb73dbf46c149U, 0xbdd244583e13be2bU, 0xbe1c2d27beb583f7U, 0xbf2712783f8c719cU,
  0xbf8b91f4bfcaa2d8U, 0xbfcd6016be6390c4U, 0x4023c1133eec4f6eU, 0xbf87440d3eebd461U,
  0xbf2babba3f81c74fU, 0x3ee8ac2bbf19021eU, 0xbef910cebd4364a5U, 0xbe1e5ec53ed55b5fU,
  0xbe1ad9acbe90bcedU, 0x3e8234593d3b9dd2U, 0x3e3261943e7eb969U, 0xbf0f886abeae12e1U,
  0xc0b50317bf09016bU, 0xc0b08506c10a8b7aU, 0x408c2a554085bbc9U, 0xbfd4847940dea87cU,
  0xc059f0c3c043d3b1U, 0x3e158cc23c4e6ac8U, 0xbf0ff9b23f2f16bcU, 0xbf2809d1bf89d56cU,
  0xbfe75560bfadab3fU, 0x3e556ed1bfc0a59dU, 0x3e660c913e8e04bdU, 0xbc9f4104bc94e801U,
  0xbc2d1e53bc9fd687U, 0xbc727e65bc5861d8U, 0xbf26ba95bebec363U, 0x3f1d0190be8d0819U,
  0x3eaa72d83f02f708U, 0x3ec1da683c93d2bcU, 0x3f083f85bd58f5d0U, 0xbd7f09ce3e90b715U,
  0x3f099be2bd8e1331U, 0x3d9bb9803eca316cU, 0xbd0966a83f8f3694U, 0xbf73d778bda77c29U,
  0xbeeedf42bec0435bU, 0xbe24339dbf9d28a0U, 0xbefa227abf03a933U, 0x3e77a1f33eb51af0U,
  0xbdabcbb0beb7288cU, 0xbcadad543edb337fU, 0x3f886ba8be3126c0U, 0x3f07b803beb6e3fcU,
  0xbea416e23fd55329U, 0xbdd2fc38400b8b60U, 0x3e31deb3be778935U, 0x3d25b3f6bdc39505U,
  0x3e35e544be880e1bU, 0xbe46156cbcaf12ceU, 0x3e18b19a3e8959edU, 0x3d2f9b0bbd1ed7a6U,
  0x3e0d67ff3dc81247U, 0xbde88bfebe23e230U, 0xbf0a2809be1ca090U, 0xbf2e19c43da27e6fU,
  0xbdeb6eff3e03e513U, 0xbe677b93be37588cU, 0xbca880ddbe82d63cU, 0xbce3d5273dbf1349U,
  0x3c9c798abcbcb439U, 0xbe55be4c3bf01144U, 0xbe219a423d630902U, 0x3e8b47bebea0e3d3U,
  0x3daa20423ee4fbe3U, 0xbc02cf8fbea2de36U, 0xbb01209dbbcde32aU, 0xbb78a702bb0547acU,
  0xbb83d80fbaff7de2U, 0x3be5be2bbb4286d0U, 0xbc9f10873b959855U, 0x399aa75a3c722100U,
  0x3bef9606bafc8c9cU, 0x3b2a52aabb024096U, 0x3bf15783bc07eb51U, 0xbc44d200bc391032U,
  0xbbe4bd4a3c685e75U, 0x3c416c63bbae0171U, 0xbb099446bb66e222U, 0xbb3cc32c3b1dc85eU,
  0x3ac56d6bbb1ccbbaU, 0xbaff1d4cbb286926U, 0x3b05bb223aaddcf6U, 0x3b49e60f3b8fb8acU,
  0x3b7a94ee3b05d714U, 0x3adf6a173b56971dU, 0xbe683df13d8dac29U, 0x3ed494a8becae49fU,
  0xbd8e902cbf530ea2U, 0xbbc2128b3dff292bU, 0xbe811b67bdeb91acU, 0xbdc9ebfabdf061c6U,
  0xbe3443133e38665eU, 0xbf4c2798bd9a787dU, 0x3d31a63bbf51acd5U, 0xbec62d13be639f6eU,
  0x3d9ec8dcbddc6a95U, 0xbf28a74bbd8059b7U, 0xbce27c883f6f2abbU, 0x3f2eb33cbf172e08U,
  0xbec7c84ebe494b3aU, 0x3e3068adbdbf0a78U, 0xbdaf30efbec8ab5dU, 0xbec502213c5190e7U,
  0x3c5f2cc43de39f90U, 0xbc89fd41be08b030U, 0xbcb93b783c1db20aU, 0x3c764e003adc33bdU,
  0xbaac3fa9bcdf9991U, 0xbc04b9d33c0f511eU, 0x38d9568c3d1065d5U, 0x3d2c95f3bce05e50U,
  0xbc0f5a73bc5122a6U, 0xbc529b8e3c506056U, 0x3bd8b93cbc7c1ff9U, 0xbc66ab563ce540b9U,
  0x3c83d74ebc90cb84U, 0xbcc308c7bd4bc219U, 0xbc2a515c3c961a38U, 0x3c58fc7cbb6de584U,
  0xbc079da4bb8c549fU, 0x3b0742703c9f1a74U, 0x3ca00ce4bc0b64feU, 0x3d00057a3c3ef86cU,
  0x3c5bc9003c79b92bU, 0x3c9e8b443ce06bc6U, 0xbdaab5d43ec81d83U, 0x3d5f7a433d0aaa7aU,
  0xbb9adcb23ef99397U, 0xbdacec523ed1a270U, 0xbf6b6101be761ff2U, 0xbd836270bdccfe76U,
  0xbe85de613e6d0a5dU, 0x3f4b8579bf3e3100U, 0xbeb1c56dbf6c2eeaU, 0x3ec85d713ecd4577U,
  0xbf853af93ea6a0e1U, 0x3d47e1fa3f32f758U, 0x3ebb6f63be2fe3bcU, 0x3d34252cbf0518d4U,
  0x3df79623bf104e49U, 0xbea60a30bf137536U, 0xbfb087dd3c9b8b5cU, 0x3e4d38cdbd36a0c5U,
  0x3f24ac0dbf413092U, 0x3e1fcac53f245ccdU, 0xbd96aed63e76d41bU, 0x3d100956bcae05ddU,
  0x3de400f13e7de126U, 0xbe2ef6dfba3525b0U, 0xbccfc1243e6d9363U, 0x3d6f8d883d4e428dU,
  0x3db53585bc3b9997U, 0xbd9ddea53dd88ddbU, 0xbea734ca3d39ec57U, 0xbeeccceb3de05da7U,
  0x3db949edbdede29aU, 0xbdcdad4fbdd307daU, 0xbd6ab672bd8f128aU, 0xbba5cbf7bc9b6e68U,
  0xbcf103eb3dbd602dU, 0xbe5762033bdbf8d9U, 0xbcdcfcd3bdb338d9U, 0xbdcc8035bd40344aU,
  0xbead236abecbac99U, 0xbf4c8fe6bf11fb28U, 0x3ea9980e3ead8036U, 0x3ea01ac43ee38b4dU,
  0x3ce47bbabd9c9fe6U, 0xbe072e533dc6cb16U, 0x3d2c39473dab73a3U, 0xbc38af04bd79213bU,
  0xbdd4a9e13d1099ceU, 0x3cd1df00bd0d6638U, 0x3c1b48c1bd0ff618U, 0xbc12ff5f3da9c0beU,
  0x3e0c3fc33dbb908bU, 0x3c7f5f113d0e0d6fU, 0x3d2fd1abbc42c326U, 0xbd8ec9df3c395d90U,
  0x3cca1e233d388940U, 0x3c171d0bbd83d022U, 0x3e2cf0293d391882U, 0x3dc683f2bce12404U,
  0xbd28938bbb53d2d9U, 0x3df961833d9f7fd9U, 0x3e53a3883d3496ecU, 0xbeb545bcbe00ed17U,
  0xbe977c96bdf2d175U, 0x3ed7c32e3c3471afU, 0x3d714c09be939fd1U, 0x3d9c367b3dc7b590U,
  0xbd7cc3af3d858160U, 0xbe0f971bbd952577U, 0x3db69b45bdb004a0U, 0x3d587714bc19df61U,
  0xbe9b712f3e5fc8f9U, 0xbe0e4021bd98f8d5U, 0xbcfb60783e25049fU, 0xbd1896e03d8e1e70U,
  0xbe9d6f9a3e23f93aU, 0x3cad71a53dd90f65U, 0xbe361c473df994beU, 0x3e49e5ad3b8e2243U,
  0x3e6e3e853e5517c3U, 0x3ed1a668bd12949bU, 0xbe55ace6be126b57U, 0xbe275776bdb67749U,
  0xbd8e2f9fbe89d2ffU, 0xbd5742773d17be43U, 0xbd6eef6fbda5e7deU, 0x3d45a2a7bd5b6ad4U,
  0x3e0a6d993dfde2b0U, 0x3de4c799bc17266aU, 0xbd69481c3d36858dU, 0xbe32c459bd55b7beU,
  0xbc9d32c5bd5e77afU, 0xbd04a4ef3cb38f8cU, 0xbeba4708be0325c5U, 0xbed17de8bea70efaU,
  0xbe4e248fbf3fe9a3U, 0xbf07b7ecbeb06f23U, 0xbdf3f4b13ce1144fU, 0x3d51bcfdbe0ba2a8U,
  0xbdb7a948bdae849cU, 0x3b6cc8363dadf029U, 0x3c540bfb3dbfd2caU, 0xbeec1e523dda15b9U,
  0xbd3637133eb5564cU, 0xbe55a3a2beac83feU, 0x3dc420c3be086828U, 0x3ed6804f3ebf3bc5U,
  0x3b9b5e073ead0f83U, 0x3f0acff43f312577U, 0x3e6e6c36bc173f94U, 0xbe889edb3ed10354U,
  0xbec47f2abe99dc3aU, 0xbdeeb9e7bdcc41f0U, 0xbec0f724beddf102U, 0xbec7f2e2bf011d68U,
  0x3efbc58e3d6d3a83U, 0x3d1619263c58c6eeU, 0xbe4fdb513c0b0996U, 0x3ea6c59d3e8b1b27U,
  0x3d3a595abee109d0U, 0xbef0ac653eecaeeeU, 0x3ddd094bbe6a1b27U, 0xbf4c3a6e3f180a93U,
  0x3e2227f43cef96b9U, 0xbc5fe082be977e2cU, 0x3e4b77e8beb3b8d6U, 0xbd7258983eaed036U,
  0xbdff668a3ce8f619U, 0x3e1d1a983d0ec174U, 0xbcf3d2cd3d20e979U, 0xbe7ec7103dbbc301U,
  0xbbd6781c3cb58e50U, 0xbd961ca33d559c8fU, 0x3deeea21bc0a74b6U, 0x3db077463dfae4dbU,
  0x3f1ceab63d9fb61eU, 0x3ccd6a363b8e6ae5U, 0xbe05fe023e576c56U, 0x3bc1c73b3d130515U,
  0xbd46bb573e0bf445U, 0xbd7a71debd1b915aU, 0x3d516e693c9bcbc9U, 0x3c290e3cbc99b076U,
  0xbcdf5a653d61f300U, 0x3d9aae473d352aa3U, 0x3cb84d94bc829ed5U, 0x3d1339ce3dbb318cU,
  0x3e09d3663d9cdbf9U, 0xbb9ebd38bd5fdc26U, 0xbd04934c3dd73e62U, 0x3e30c7d53d01a900U,
  0x3c4501a0be02b1eeU, 0xbe0770de3e990837U, 0x3ed5d11c3d3d4ba9U, 0x3b2f9470be436188U,
  0x3ddb43033e8c6a8dU, 0x3c7792dcbd23951cU, 0xbe11b90e3df2d700U, 0xbd9cdcadbd65c548U,
  0xbdf84d3fbcdb25ceU, 0xbc6d6ad6bd48d416U, 0xbe72ca65bf2c62adU, 0x3d1329603d541d48U,
  0xbeb504e9bfaa806bU, 0x3c0a581bbf03af0fU, 0x3f9f66ab3e6954b2U, 0xbcd1cec6bddc61faU,
  0xbeff5b123e0f33f3U, 0xbe80c2573f41e9eeU, 0x3e9df6acbe9452e1U, 0xbf511aa2bb8b3497U,
  0xbe976dd3bedc4e17U, 0xbd4fbdc3be35ee3dU, 0x3df13f8c3ea1facbU, 0x3f202499bd352e85U,
  0x3e38d5bd3e62cf6eU, 0x3ed01badbeb1c8e3U, 0x3d5e5fc3be27809aU, 0xbefb8b663da12aedU,
  0xbeb6a64d3f9eaccbU, 0x3dae0b853d3abf30U, 0x3d8a833b3d15d371U, 0x3ee033f0bdbd3fddU,
  0xbea4a37abe6ecde2U, 0xbf1a9b643e6816b0U, 0x3eed13733dfa7e00U, 0x3d72e2703e35cb69U,
  0x3d7c1814bdadca2bU, 0x3f0057023e5a4f1aU, 0x3f2b2142bbfb7ed4U, 0xbe3b5a76bdbd2368U,
  0xbb96bb06be553f42U, 0x3d9e54303d8f43ceU, 0xbda714573d1d4d5aU, 0xbe121e2e3d682c3bU,
  0x3d7cd719bcc270d5U, 0x3d8f8d4abd2aea73U, 0x3e7a84fabe01e274U, 0x3e3f646e3e30788fU,
  0x3dc193ba3e19b2b6U, 0x3db73a6b3e9945d3U, 0x3dd03607bdc8b1ccU, 0x3eedece4bcfbf6e9U,
  0x3dd0e8c13c50a8f9U, 0x3e30c5953e12ead4U, 0xbe9ef997bd8ed288U, 0xbad577aebded11f6U,
  0x3b1bc6f03c2e76a3U, 0xbe5c879dbdd6a68eU, 0xbe273b9d3d2ed3ceU, 0xbcf5ac7bb83df9a0U,
  0x3e45faf0bdd7cc81U, 0x3bae649fbcf5be3dU, 0x3d95886e3daf91c6U, 0x3df2f1f93e290f6fU,
  0xbb8cd5273c62358bU, 0xbe27885ebdf92cd9U, 0x3e1039733d21d692U, 0xbdf591e7be2a04b9U,
  0xbdb0e7883c0d265aU, 0xbd122eaebe2808eaU, 0x3d4111cf3ef1653cU, 0xbe8445e13b3c3ac8U,
  0x3d9eec623e179c7aU, 0xbe4af5033e224652U, 0x3dc4ae28bd9960c6U, 0xbc49dfea3d8edc56U,
  0xbe4b47ec3d59fbd0U, 0x3e8886e83e0f4e51U, 0xbea1d4803af94469U, 0xbba5e8f9bdb37046U,
  0xbddf14613cd5570eU, 0x3ddb7c713e800f18U, 0x3cfcda23bdbdc477U, 0xbe54b7da3e00fd01U,
  0x3d2a4c8c3dedabc6U, 0xbea3b243bf3c23beU, 0x3bfab5cc3cd57329U, 0x3e006ef7bda5564cU,
  0xbec9d7bcbc60c490U, 0xbdaaa1753ebf4c36U, 0xbc6a6c04bc64ee5eU, 0xbc27a237bc037557U,
  0xbae9921bbc01edfeU, 0xbb186ec6bba85559U, 0xbc12bb643a3f61d2U, 0xbbe84539bc07fdaaU,
  0xbbd620bebc0bf67cU, 0xbbbd9d7bbbb8ea81U, 0xbb6c25c7bb77afffU, 0x3c2890323bb0d70cU,
  0xbc0b8a493a57910dU, 0xbbb8421ebbccf6a0U, 0xbc9de280bc3b9de6U, 0x3baae923bc4f1e4cU,
  0xb90b2f2aba6319d7U, 0x3c06734b3b3e0d6eU, 0xbbad878d3c50b5feU, 0x3c891b4ab9c4e788U,
  0x3c93127c3c2470dfU, 0x3cda6c40bce6f5a0U, 0xbda37cb0bcf69d1fU, 0xbe590dde3e2e489aU,
  0xbd9fb5f93e720fc1U, 0xbd396db5bca68326U, 0x3f0a1b6a3db08c12U, 0x3db3d26d3e1ed451U,
  0x3ccac0333e557d6bU, 0x3d992d8c3e642404U, 0x3e39f0d43e9078adU, 0x3d9f04893bf2b8cbU,
  0xbe4d53c43e38b397U, 0x3e2c03adbe169478U, 0x3e1bf8543ecfe884U, 0x3cc7ba073e881262U,
  0x3dacd2f63e844489U, 0x3e01583a3e41e8fdU, 0xbdd89881bc89179fU, 0xbe159f57bde44518U,
  0xbdc9be203d494e69U, 0xba9451edbd8cd475U, 0x3ca3beae3ba61b21U, 0x3e001012be378421U,
  0xbe6827c2bd5f70c8U, 0x3dd17a8a3bab1b1fU, 0x3ca426f8bf3d8d0bU, 0xbd51a729be1c9883U,
  0xbda48194bd1df2f5U, 0xbd3b8c87bd019a6eU, 0x3e490b9fbd0dd501U, 0x3de1757ebc930c3aU,
  0xbdb5d8e23d79d22fU, 0x3b81f70f3e55fbcfU, 0x3e509f623c27dd89U, 0xbbfbe68a3d480ef4U,
  0xbe34ea963d08f4caU, 0xbd020570bd2a8112U, 0xbe1bdd5ebf062635U, 0x3da019a03d12ba06U,
  0x3dcac14bbdc9bf25U, 0xbe38e82fbe9ed6c8U, 0x3ae1c0ce3ac2b457U, 0xbb476e5d39db4405U,
  0xbb763ec5bb535c0dU, 0xbbbc9a26bb6f6e63U, 0xbbad58c8bb95644aU, 0xbbd3e8f8bbf93993U,
  0xbbce544abb8681fcU, 0xba663c29bbab0ee1U, 0x3aa1ff6d3a06fc94U, 0x3a5ad25bba1bfacbU,
  0xbab3c06b3adcd98aU, 0x3a3209adb8ca5cecU, 0x3acda11cba89c5a9U, 0x3a9ec5bd3714358bU,
  0x3b55c8353b9419dcU, 0x3b682ec7397d05caU, 0x3a4ea63a3b2d189bU, 0x3a4c56813a69d609U,
  0x3a54e9e43a580562U, 0x39db7fa339f5186cU, 0xba99ef783a5789e2U, 0x3e0cb9c9bc5dd821U,
  0x3be22681bd469b77U, 0xbe4581ec3e676e59U, 0x3e54f07b3d563f0fU, 0x3e4307f33d286a87U,
  0xbce7f9543e8c739eU, 0x3ee286a13e978096U, 0x3e4d49743db555acU, 0x3de5b19a3ec4cd5fU,
  0x3dc338863d8e4f3eU, 0x3d946bc7bd1566a8U, 0xbdb51fc93d3435d8U, 0x3ca8e8713d1c85aeU,
  0x3be982dcbdb59cc8U, 0x3c99d5613d7d650bU, 0x3e21d817bcefa422U, 0x3cf1c6983d11ad11U,
  0x3c6fde713dc3c95eU, 0xbc13d2e33d58479aU, 0x3bc049b4b9bd2e3bU, 0xbb867b26bbe90fa4U,
  0x3b110f903c19c1c6U, 0xbd28e331bb283293U, 0x3c98dff63c829292U, 0x3cd423b5bd3024eeU,
  0xbd0d5f803c8e596cU, 0x3cd90fef3d03748bU, 0x3abf86febb1e2b6cU, 0xbbe91355baf0dbbaU,
  0xbbefd6ccbb8d7e7aU, 0xbb36141dbbe6456fU, 0xba9310b7bbb52d1bU, 0xbc4a93bcbb49377bU,
  0xbc386977bbec5a08U, 0xbbe3b4cebcb3f4cbU, 0xbc8c765fbbfe7ec3U, 0xbc454d5cbbc68ccbU,
  0xbbefbd64bcd1bc34U, 0xbcf348f1bc61d2a2U, 0x3b8e83d0ba3a1bdeU, 0x3c457b733c8cbf90U,
  0x3ac7235e3bee430eU, 0x3a00dbfb3abf9208U, 0xbcd023b63c7bde95U, 0x3d1105b3bc14031dU,
  0xbbadace0bd2a0a6cU, 0xbc9191f73d1b955aU, 0x3d0645f3ba8a8f19U, 0xbc2b7c743cac5f95U,
  0xbc7b882dbc6c528aU, 0x3cb4644fbc4c82f6U, 0xbbc54f65bc2784acU, 0xbcba2b313cff940bU,
  0x38fed110bcad7c63U, 0xbc491a9f3b18ccf7U, 0x3c157dfdbd13eb5eU, 0xbc816c62bb623eb1U,
  0x3c03c9c73c418f4aU, 0xbb72ae47bc2ac966U, 0xbcda9b5a3d1e9313U, 0xbd180217bdba0154U,
  0xbd93b5c5bdefd8d9U, 0xbdccb6adbcae2227U, 0xbbfb31ae3d527096U, 0x3d846fc7bd126768U,
  0xbd05d5b238dc6906U, 0x3ca510173da228d1U, 0xbb98f2aabc3785d2U, 0xbd3b55ccbcc03eb4U,
  0xbcfe7ababbcd73e7U, 0xbb9263a0bd5ed31fU, 0xbd3a1e06bcc5d6fbU, 0x3ac7709abd22a453U,
  0xbe24bcc23d965cd5U, 0x3d39d29fbde11c5eU, 0xbd9b3d58be13948dU, 0xbd40279b3d90b27bU,
  0xbb6b03afba38ff39U, 0xbc127db8bafd61b9U, 0xbb3eb7b13b78193bU, 0x3c085e6c3ad0f70fU,
  0xbb10ef74ba9c972cU, 0xbac3261c3b27ae82U, 0x3b9f99d0bb052d3aU, 0xbb76a55abb4a7b37U,
  0x3a5828963ac03716U, 0xb91f81573b00b86cU, 0x3b2883453ad5bcf0U, 0x3a1c9f8f3a867cb6U,
  0x3a4808fd3af5736bU, 0xb99c4e8a38bf92b2U, 0x3a2e6cd4b91ad319U, 0xb970cf29b91b01a7U,
  0x3912f0e03a723c03U, 0xb8cc8f7db92b233dU, 0xbaa07516ba6b4ae8U, 0xb90dd7fb393b67b6U,
  0x3a0b29a4b9e52573U, 0xb927e46eb821ec1bU, 0xbce507583c01339cU, 0xbd1a0522bc4cb5e2U,
  0xbd341aa4bdb548e5U, 0xbd626301bcd19c07U, 0x3cc1317fbc802d71U, 0xbcab547c3aaf026bU,
  0xbc0c62e23c88eec6U, 0x3c55807ebd0348baU, 0xbcf80e47bc348d1cU, 0xbbf6043cba58e5f0U,
  0xbaa1adf9bc77d303U, 0xbc95dc6dbc2dd4cfU, 0xbbeb9c48b9af5a10U, 0xbd0a0c41bc755684U,
  0x3cb51521bb8e65d3U, 0xbbeb1367bd2ed33eU, 0xbd31db7e3cbae710U, 0x3c530be9bc49239bU,
  0xbacc67d43ca95d8cU, 0x3bcf8f4abcb19ed7U, 0xbe805ff7be113627U, 0xbde13cd33e1dccfbU,
  0xbded92bdbf3b972bU, 0xbdf39a453c0761b6U, 0xbe9519f1bea293edU, 0xbd59cd6fbaed5bcaU,
  0xbc7a9648bd5a0fe2U, 0xbd0549723e32d741U, 0x3ea8dcecbe03f593U, 0xbe6ca804bdc2f93bU,
  0x3d082e08bdb0895bU, 0xbd717dd6be6e67fbU, 0x3e02e129be65b488U, 0xbc2f8bfcbd410e93U,
  0xbe85e3d03da06a08U, 0x3f057935bd5226e8U, 0xbf2d3363be72f4d7U, 0xbd24f8523e923723U,
  0x3ed5cf90bf5ed0c1U, 0xbcf1cfc63dc6b197U, 0x3e42a53cbd65eb7eU, 0xbd95dc27bbdbaf27U,
  0x3dd14587be5e496bU, 0x3e92ff293c866347U, 0xbdab6a593d70e84fU, 0x3d040e1ebc375816U,
  0x3de0922fbd430cdbU, 0xbc0f8fd3bdbb95b0U, 0xbcaeb0723e52beb1U, 0x3dc370aa3d5654acU,
  0x3e6b911a3e262bbfU, 0x3e73508c3e07e5e2U, 0x3d1e0c953ea91da3U, 0x3e588d713ec4ea09U,
  0x3d03c2e5be1c307eU, 0xbe9d8d41bda38739U, 0x3ea380893ae30673U, 0x3da3819bbe69ce86U,
  0xbe49ce2d3f19064fU, 0x3dd77f083bfd0ffaU, 0x3e36a1babf22e685U, 0xbe95e5d63e2fe7adU,
  0x3e9e27c93d8cb4beU, 0xbd86f6a33e0c4b40U, 0xbd8bd90a3e7221baU, 0xbd8fabe63e072b99U,
  0x3a6a1c903cca7fffU, 0x3e88c4af3d1e92cfU, 0x3db1fb163ef885ddU, 0x3e35e2ec3df7cb80U,
  0x3d812fd8bd84dfcdU, 0x3cd7fa5e3e00ead7U, 0xbb9129223da8cfadU, 0xbd991e4c3cb01b78U,
  0x3de2dd4dbc317f4eU, 0xbe38a2853f15e173U, 0x3ee1198dbcb758b3U, 0x3ccbfc90bdaa58deU,
  0x3ebbf499bda7882aU, 0xbcdce4f5be38f4b5U, 0x3e1c40cdbcd36b62U, 0xbd9856dbbe7cc04cU,
  0xbe5f178cbcdc9f95U, 0x3ede00efbc22fc97U, 0xbd225c2abe8ff218U, 0xbe6139133dc91b41U,
  0x3d506a9cbd7fdad1U, 0xbe847064be1455f3U, 0x3dad788abdb72101U, 0xbde8519dbe0158a6U,
  0xbe2d55783e167c4cU, 0xbdbbf77e3ebf4cfaU, 0x3d15e7d0bccac491U, 0xbe2002b23e24f160U,
  0xbe1ffaffbee45f34U, 0xbd86ae80bc4fc2e7U, 0xbc24eb513c4f8419U, 0x3ba39036bd87876fU,
  0x3de6e2f63e2ca40eU, 0xbc1d45b5bcf1f9f1U, 0x3996fed7bb940cbcU, 0xbbe474ac3bf15ea0U,
  0xbbf4f7d13bed7fdfU, 0xbcb2ecf2bb965a43U, 0x3b45eadfbabe4becU, 0xbb1bf122bd101ac3U,
  0xbc9020f2bcb0b723U, 0xbcc000163c84778dU, 0x3a2a379ebc31ca32U, 0xbc06e5b93cbd8e09U,
  0x3cda584b3b8e004dU, 0x3b7c2341bbd81c4fU, 0xbb85bb243cd2b2e9U, 0x3c2a23e43929b4ddU,
  0xbb1a25e0bbf4718eU, 0xbbebf6ae3c25e0d3U, 0x3c1c388bbae58d5dU, 0xbc09cecbbc88e9e2U,
  0xbb2b1efb3db60420U, 0x3e43c85f3d92cc36U, 0x3e089138bd196f45U, 0x3ded54d13ec1f473U,
  0xbe246fccbd0235edU, 0x3d369bd53db2c6e6U, 0xbd7723b3bde6c393U, 0x3de6d029bc1e0fc7U,
  0x39ff4ceebcad1cfaU, 0xbbd608193d16dd41U, 0x3d6fc6913c3768f4U, 0x3d3ec7c6bcf23056U,
  0x3db71be33c79e258U, 0xbdb5fadb3d07da51U, 0x3c5f6dbe3de78cd3U, 0x3da99d28be113fa9U,
  0xbe2051ec3c71fb9dU, 0xbc6a6d6abd15dbe5U, 0xbc7d6eb6bccb23b9U, 0xbcd27317bcb472c7U,
  0xbc94e2143c4c998cU, 0x3d03b5acbc7f6f86U, 0xbde7f9ad3ece2d47U, 0xbe5616c84094afeaU,
  0x3ffa3ade40639068U, 0xbcaecf18bf5e1495U, 0x3fd1771e3fbc1a2fU, 0xbc8a20843f372691U,
  0xbf1bc6ed3ff8b83aU, 0x3fd0a6473f34d581U, 0xbfb772bdbd9bcbe4U, 0xbd8260c23fb210f0U,
  0xbee63482bfa2de20U, 0x3ddcaf74bf1e5586U, 0x3cc728a8be1831ceU, 0xbf479e8c409fd868U,
  0x3fd3c5ebbe7c6400U, 0xbc88d9a4bea2f9d6U, 0xbec606083d2e5052U, 0x3d5be2b33ec1b980U,
  0x3ea7dc1fbeef46b5U, 0xbedce9273d235763U, 0x3bcb20e03cb2acfaU, 0x3d15f585bd1b5888U,
  0xbd0d19033c7c0e7eU, 0x3c404c4b3d0c3729U, 0xbeabc750bd08a9b7U, 0x3e917780be22dc33U,
  0xbe2c5ca4beddc3c9U, 0xbec2aa2a3ed0d556U, 0x3eddfb95bdf9b1d5U, 0x3de7eade3d030091U,
  0x3da3d6ccbd29524dU, 0xbd02ed223dc613c5U, 0x3ddaf1003d851997U, 0xbd8d3cf2bc85d4b4U,
  0xbcf21250bdcfcf9dU, 0x3d703ecebb64b7c7U, 0x3decd1ff3d6cd79fU, 0x3abb0ab93cf1fa2cU,
  0xbd181b8c3dcc1d53U, 0x3e8e26ecbec2a2e1U, 0xbeb69ba93dbbaa6eU, 0x3def62783e9c7c18U,
  0xbd287bbcbe90258dU, 0xbd681ff4bd59ec2cU, 0xbcc24f3bbcbe0046U, 0xbd1c229dbc48438aU,
  0xbc5057eebd17568aU, 0xbd929949bdcaa254U, 0xbe4944b93dbae00fU, 0x3df4c4a9bde9ea0dU,
  0xbd95e083be3ad2feU, 0x38a090813e2972bcU, 0xbd8c3be03bd71b42U, 0x3be33e113d22d502U,
  0xbc81b782bdaa006bU, 0xbdc68fb1bd28211aU, 0x3c683f9bbe348eb5U, 0xbdcf6a25bd1e2d91U,
  0xbcf66570be2c96dcU, 0x3e15bc49be070c24U, 0xbd4d40633d4fab49U, 0xbed248ccbdc1b466U,
  0xbe3b0376bd8dd32fU, 0xbd545e33bf17a2dcU, 0xbecfb6cbbd813c25U, 0xbd2f5a78bd9e8e4aU,
  0xbd8041f1bbd7e5bcU, 0x3c10e846bd135362U, 0xbc3e3945bd0c74d0U, 0xbd9a69da3cf04caaU,
  0xbeb8b1f5bdd581fbU, 0x3dbface93db196c4U, 0xbdc5b235be9b2c01U, 0xbeacee98be027c29U,
  0x3d9f0bb63d942da4U, 0x3d42bd633d5f630fU, 0x3e0708473d9ade18U, 0x3dccc8a93dca8d37U,
  0x3ea3ce953d5b5159U, 0xbe9740113e59c0c8U, 0x3ecc43ce3ed32437U, 0x3e4095a2bf7f9da2U,
  0xbf8161d8bd04df84U, 0xbddd9adabd67ac57U, 0xbef2097ebd3e6a4bU, 0xbb24e4e1be4c0695U,
