
/**
  ******************************************************************************
  * @file    network_data.c
  * @author  AST Embedded Analytics Research Platform
  * @date    Wed Feb  2 11:54:09 2022
  * @brief   AI Tool Automatic Code Generator for Embedded NN computing
  ******************************************************************************
  * @attention
  *
  * Copyright (c) 2021 STMicroelectronics.
  * All rights reserved.
  *
  * This software is licensed under terms that can be found in the LICENSE file
  * in the root directory of this software component.
  * If no LICENSE file comes with this software, it is provided AS-IS.
  ******************************************************************************
  */
#include "network_data.h"
#include "ai_platform_interface.h"

AI_API_DECLARE_BEGIN

AI_ALIGNED(32)
const ai_u64 s_network_network_weights_array_u64[ 4835 ] = {
  0x40c09315bef59f27U, 0x3e215895c0e7e129U, 0xbe42e37f4055efefU, 0x40c4b67ec0085024U,
  0x3f3befebc08763f2U, 0xbf696ed73f35deceU, 0xc0e03829c004cc06U, 0x40252b5940ef5f81U,
  0xc0889b2a3fc93f8bU, 0xc0876f1b3f165cbdU, 0xc08ce1a0408bdb38U, 0x4136fc07c1081f5bU,
  0xc06e8149409ce9c9U, 0xbe8b2ec0bff9ab4aU, 0x3b7a48aebdb80e47U, 0xbc341224be94df0cU,
  0x3e1d6b7dbd8290c9U, 0x3d81fbb93d4c0641U, 0xbe1c9557bf3c2c8fU, 0xbf2bc968befb7761U,
  0xbe94b70fbd108e4cU, 0x3d6c1e293da20a00U, 0x3e0df076bcafeb7cU, 0xbe95d79e3e5e98a9U,
  0x3e408d133e03eb4eU, 0x3e34d6e7be3afcd6U, 0x3df050adbd8dfe25U, 0xbd9a42dd3e4e7b16U,
  0x3f04609a3c7ff280U, 0xbee324a1bda1dc7cU, 0xbd8aa7003e35af73U, 0xbf47280dbd512b61U,
  0x3d2926a7bd854dddU, 0xbecb0423bfd80f1cU, 0xbfb22acdbebfb0a7U, 0xbd8936d0beadbc1eU,
  0x3cfe28413eccfec9U, 0x3fc0f6dc3e5d4274U, 0x3e5a60fe3f229613U, 0x3e8ef0ba3f81835aU,
  0xc009689a3ef3ffffU, 0xbf18606bbf17d02bU, 0xbeeb6464bfc9df9fU, 0xbe19e884bef47f84U,
  0xbf2fcccb3eb29c8dU, 0x3e8183383e0e7795U, 0x3ee19be13e91db11U, 0x3e7e7ffc3e1ae323U,
  0x3e0082643d9fbeabU, 0x40014d59bb8fb9acU, 0x3f8365ef3ed04743U, 0x3cb3a0573ff9557cU,
  0x3e724f4d3ec8a610U, 0x3eeb60aebea68fb9U, 0x3e9b64053fbccbbeU, 0x403d21a9bef7e17bU,
  0x3f2869fb3f94b678U, 0x3f4a2ff2400ee643U, 0xbfac97b83e5ca724U, 0x3d6bc127be5fccafU,
  0xbfc207ffc03d194eU, 0xbffa02e9be8639d4U, 0xbf170fc7bf5ced3fU, 0xbd347ec73de6a8baU,
  0xbebf78f33dd46a3dU, 0x3ef838e2bbd304aeU, 0x3eb36155bdbed271U, 0xbe993da5be428939U,
  0x3ec7db93beeac5eeU, 0x3e20f529bddbb2b6U, 0x3d8ebfbebe0ac258U, 0x3f09badabd3566e5U,
  0xbdab7fd0be997fb8U, 0x3e8064203e41c60fU, 0xbeaacde93ec392e4U, 0xbc0b3baebdd3fbf1U,
  0x3f5d6c8a3e851875U, 0xbec0d7dc3e6f697cU, 0x3ee91c863fdd325fU, 0x3f543692bf523631U,
  0xbdcb3e043d610c8fU, 0x3c80ce06bdbd12beU, 0x3e8ed6a83d73d88dU, 0x3d93d5df3e279c86U,
  0x3d16a44b3e52d710U, 0xbd7c701e3d8ce467U, 0x3d6b777cbcbb5765U, 0x3e2329153f0cfda7U,
  0x3ee6ac8f3e163a9cU, 0x3de53c4ebc633d21U, 0xbcaa46c8be1ace4dU, 0x3eaafc743de8113eU,
  0x3e5e627f3ddd9191U, 0xbd2ea65a3e3d9cd6U, 0x3f06e6fc3e4c2779U, 0xbecf9200be809ff7U,
  0xc00448e03ffde19cU, 0x400db68b3e66250aU, 0xbf01b96abfe338ffU, 0xbf32df703f6d09b5U,
  0x404f4460be51ed15U, 0xbc84933cc05865d5U, 0xc0367fd940768163U, 0x3f3dc331bf7436f2U,
  0xbcd7609bbf2a0e91U, 0xbfcaa39b3fa20861U, 0x400ae9213e5b9c73U, 0xbf193e8ebfc94f6eU,
  0x401268ae3eef4f74U, 0x3f932900400ad840U, 0xbe0bd8b03d28b0f8U, 0x3f05e6243d87cfc0U,
  0x3ed8c727bdeabe11U, 0xbd85779c3d105945U, 0x3e9331c83f8d1c4cU, 0x3e7d81a4be633d5fU,
  0x3daf49e6be330538U, 0xc06fc1c53f1ca5faU, 0x3ddd13693e230ba4U, 0xbd8fb9b8c00091c4U,
  0x40984713bf709016U, 0x3f947591bd8cbd66U, 0xbd9787e23e754d57U, 0xbf3c97f0c07767deU,
  0x3e2a445f3dc1af95U, 0x3bc5e9fd3d68576eU, 0x3e23fdc9bbbadc8eU, 0x3d405be5bc129979U,
  0xbd104912bfa90ad1U, 0x3a1c26d23de84d6bU, 0xbf208a48be093423U, 0x3e0db35fbe69ffd9U,
  0x3f16843a4006b9c5U, 0x3daddc3ebdb05624U, 0xbe9dcb3cbd5329c5U, 0x3ec473b7bffc7c3aU,
  0x3faa516f3e8c5e4cU, 0x3e27e01bbe72ebf3U, 0x3c7454b3bf17bbe4U, 0x3f3cb7023dfc9a08U,
  0x3d54ec65bf3bc96aU, 0x40846070c08cc6c2U, 0x3f1ba24c3df5f4faU, 0xbd01f474bf2b4433U,
  0x3e07377e3f053642U, 0xc026565d3f1c1480U, 0x3c9594ff3e750514U, 0x3d7116043ec22988U,
  0x406f3392bee4c825U, 0x4095a9d040ce5ebcU, 0x400a1836bd2bd938U, 0x402ecc364049887fU,
  0x3d0d9b88be755bcbU, 0x3d85a43f3da2d28bU, 0x3c0ed7f23d921b45U, 0xbf5216773f8d78c4U,
  0xbd2514f63e55c0d7U, 0xbec856393ec8ce70U, 0x3e746c4b3ea45212U, 0x3f866cd93f613a2eU,
  0x3e877f3abeaee055U, 0xbebc076a3f8d4110U, 0x3f39d8133f786412U, 0xbebcbfa0bea84217U,
  0x3f36336f3de26c07U, 0x3f9b9647be8dad4eU, 0xbd75181ebe549109U, 0x3ecca2aa3b2a3d0cU,
  0xc08724e3c002586fU, 0xc0b5ae67bd45d552U, 0x3e374e65bda5f8aaU, 0x3e08fe5abd3151adU,
  0xbe7ef2e13e5df9e7U, 0xbe89ec1ebdcace7fU, 0x3deaed863eb53e8cU, 0x3e773bd3bd910d25U,
  0x3af489efbc9c4f0bU, 0x3dc8b56e3ccf8b90U, 0xbe13473bbe7f2452U, 0xbe77e735bc327bdbU,
  0xbca8f3b63ddadb61U, 0x3e23e40b3d041e48U, 0x3e276b02bd9d4dbaU, 0xbda9325f3eaa8d39U,
  0xbef0648d3d76b65fU, 0xbe00ff4e3e162f91U, 0xbe3d1c603e5ea984U, 0xbd4479e53c690d9fU,
  0x3dd010663e1c2c9eU, 0xbd8582fb3e7a9128U, 0x3d8b50173d8ad4a6U, 0xbd949220bd3d68caU,
  0x3e30dbf3be1c070cU, 0x3be13513bd0b2407U, 0x3dd3161cbca02ac2U, 0xbe0307b63eb9a776U,
  0x3bb9d1ba3bcdffc8U, 0x3e1390833dba9b05U, 0xbf1763ec3d970a7cU, 0xbe0efcad3dc40658U,
  0xbefd20093ecd10b9U, 0xbe02477f3e0160e9U, 0x3e8186aebe54db2fU, 0x3c572fe3bd42a6f7U,
  0xbe86847fbea42459U, 0x3e1e6c933de8bf08U, 0x3f10fa2f3fb1a421U, 0x3fb61f2dbd1c1a4aU,
  0x3f55e1e43d3b5244U, 0x3f981c3c3ddf312cU, 0x3f8034043f0e7234U, 0x3f44497c3abd0417U,
  0x3dca43343f2268e5U, 0x3f34893a3fc0f43aU, 0x3e1760353f9cb89eU, 0x3eecda8d3e0b233cU,
  0xbdd3ef083ea9a07aU, 0x3f14bab43eafcfe4U, 0xbe1188e0bea04bc4U, 0xbe56b8233e2e6848U,
  0xbdd6748bbf39aba8U, 0xbe220493bebf3413U, 0xbc3df7343f18170dU, 0x3f1e5d4d3e9609a0U,
  0x3ebb9b6b3eb35480U, 0x3f20a7e13dc4407fU, 0x3e3cb8243f1b8a80U, 0x3ea4dfcf3eb7a564U,
  0x3f50d4a23db6bc5dU, 0x3ed2e992bfa0ca37U, 0xbfd585d43f9efd92U, 0x3f2236543ed0935aU,
  0x3c391a68bf27cd21U, 0x3f067d123e830a20U, 0x3e9e40103e909f07U, 0x3f1b39dd3f5445edU,
  0x3ed17a4a3d8d79c6U, 0xbeb47a563ebb5e67U, 0xbedc6b3c3f64196dU, 0x3fc50390bf015fb9U,
  0xbe8ac8b4bf8f7c42U, 0xbf2eba8f3f63dfb7U, 0x3ee59f373e6904f7U, 0x3eddd2e73ed0d4fdU,
  0x3f30adc23f5c2665U, 0x3f06266f3e9a505bU, 0x3e96e0f83ec89926U, 0xbcf04c97bea3c030U,
  0xbf0bd82e3f0a5993U, 0x3e960a3a3c17feafU, 0x3d3cc651beb7715dU, 0xbe6cd66bbebecafbU,
  0xbf38e1a63f37da01U, 0x3fbc14ebbf2d26b9U, 0xbf18d8a0bef3b46bU, 0x3e6734193f6adc5fU,
  0x3e573a8e3ed9596eU, 0x3f1ea0e43ecb8aaeU, 0x3e43b1a13e703439U, 0x3d66d3073e8371c7U,
  0x3f8e49813f598d80U, 0x3fcdc4273f0c69d2U, 0x3f1439593fe400a5U, 0x3f5abdd03f81a8b7U,
  0xbe888d6d3da26892U, 0xbe55e005bfc779dfU, 0xbe92d7dcbf1d6c72U, 0x3e124d603f2e0ffbU,
  0x3f6caa133f8e5d72U, 0x3eb69c4f3e34e3fbU, 0x3ea6137e3e9e8ea8U, 0x3f1779ac3f318656U,
  0x3ed6a2673e53c394U, 0xbeb5aa413ebe17dfU, 0xbe701722bee72ddaU, 0xbf5b82dcbf141701U,
  0xbe7fcc62beb0da61U, 0xbe1e165ebee466daU, 0x3e61bb493ce10f57U, 0x3c7fe1cfbe8efc3fU,
  0xbedc915a3ed1a55cU, 0x3e6d72f23c303097U, 0x3d7ab155be90b9b8U, 0xbe32c141be72b57cU,
  0xbee5f846be09a075U, 0xbe7aa04fbe83cabdU, 0xbe0dd671be50b93fU, 0xbf8cb19ebe75b89aU,
  0x3e2708c5bf04e466U, 0xbf09bc2c3d8c702eU, 0x3f862f983f052c19U, 0xbe057cf23ed96fa3U,
  0xbe51d593bebdfba0U, 0xbf007b57be21c10dU, 0xbd835537be98c103U, 0xbe265cfcbe860000U,
  0x3dd371e83e842a64U, 0x3d806d583f615222U, 0x3cd29e6c3f4d92ceU, 0x3c2832403e369268U,
  0x3d8cdea0bcfd6078U, 0x3d6b44663f41b772U, 0x407e74923e8b9228U, 0x3fd9d6283dd84852U,
  0x4091421d3e8477eeU, 0x3e1766623eae5dc6U, 0xbf26150fbf074f61U, 0xbe9b4aea3e6cb0a5U,
  0xbf0f2d6abf8eddbaU, 0x3f4e57d4bee173c0U, 0xbd8f02ecbed59697U, 0xbdd7961a3f8f0738U,
  0xbf3748efbec5170aU, 0x3edb4e593e31b3d4U, 0x3e3a4c2cbe9fa39bU, 0xbeaa006bbeaff416U,
  0xbe854a4bbe3ad17aU, 0xbea39ccd3eeb476fU, 0xbe222dcabead3c52U, 0x3deccedf3d197457U,
  0xbe57028dbefddb85U, 0x3e10013fbec432eeU, 0x3eb2e2b7be16dcc4U, 0xbdbc99d83ebd3329U,
  0x3e1e8f4b3f1a78f3U, 0x3e37b31bbf07d421U, 0x3d6e0501bd3cbb2aU, 0x3e934aeb3e11a9ddU,
  0xbdf24a91bf4431e4U, 0x3f4410b03d2e2d32U, 0xbdced31c3d893dbaU, 0xbf4410a23e610d8eU,
  0x3ec5b5ad3f351dffU, 0x3df13340be5fa78bU, 0x3d23b695bd8fdd4cU, 0xbda7c7bc3dbc120aU,
  0xbcc7ab01bde0360eU, 0x3e63e9203e6e5871U, 0xbef1cbf2bbaecc19U, 0x3efc0862bca41c73U,
  0xbe6734ba3e166133U, 0x3e1eb5a5bee45e7cU, 0xbd2f12b0be6ac486U, 0xbe32a920bf231595U,
  0xbd4bcb0ebedaa095U, 0xbf03c66fbe27a651U, 0x3eaf0eae3eafa078U, 0xbef93b703f4a0990U,
  0xbe30b7bdbe634c79U, 0xbe492d15bdecc972U, 0x3db683acbef0471aU, 0x3ead8108be6c5420U,
  0x3e0c9aabbeb35850U, 0x3e857da8bd34e385U, 0x3ed155953e6ece13U, 0x3e7f7bce3ea66e13U,
  0x3f02dc28be8d27ddU, 0xbdb591913e863783U, 0xbf483049bf00914dU, 0x400607c1c04dd8c0U,
  0x3e94ac23be8005f2U, 0x4013c184408e4ec3U, 0x3e5a29f7bd905c27U, 0xbe9d6cef3f0a6382U,
  0x3e53ebc3bd2108b0U, 0xbf23e8c2be85b300U, 0x3cf7a77a3d1a2c44U, 0x3ea4a91ebd704ecdU,
  0x3dc2fd873d8c563bU, 0xbea02d83bf092e69U, 0x3e57259ebdd851dfU, 0x3ef6d3313eb5cc25U,
  0x3dceb12fbe1a8a85U, 0xbe3af1163f5b07e4U, 0x3ec644c93e945ad0U, 0x3f542ca4bee12a3cU,
  0x3ec8edaf3f650fd3U, 0xbda709d6bdf8a148U, 0x3e8e7c50bdd446fbU, 0xbdf8c158bb68097fU,
  0xbe7b2af8bd4720b6U, 0xbd2ceb06be458eeeU, 0xbe384d773de4baf3U, 0x3da7016c3eef152aU,
  0xbf3015f13f3528a8U, 0xbd8b0fe6bf23bae0U, 0x3f692bc2bcc0de15U, 0x3dc3ffbf3f718b45U,
  0x3f375f433f0eb343U, 0xbe85531fbd41e99bU, 0x3e7f38c83d5a61c5U, 0x3e60cd81be5923b5U,
  0x3f7f024cbe295714U, 0x3e126691be557d1aU, 0x3f15f9e13f8f5f94U, 0x3da8293b3ead5cf5U,
  0xbe74b5523e923448U, 0x3f015df9be19a68cU, 0xbe04ecaabc127990U, 0xbe8987dfbe6d3264U,
  0xbef0e760bee519f4U, 0xbf53928d3d471ae0U, 0xbe8f0c08bf48ab78U, 0x3d0b083c3d8dee43U,
  0xbe25cdea3e18a712U, 0xbedfe0823ed3522cU, 0xbf4976f9bf347210U, 0xbeba91963eec1ee2U,
  0x3df67b003e6aa187U, 0x3d91977b3dd7dee8U, 0xbee57e40be801ebaU, 0xbd3b5a6d3841a8b0U,
  0xbd0e237b3e181c70U, 0xbe9784e23e9a0fc7U, 0x3bcdf1963d5a1f39U, 0x3dae1b07bd9cde66U,
  0xbec760043e287e2aU, 0xbeeef82e3e245ef8U, 0x3e8229af3e89bc06U, 0x3f18eee2bd9cb075U,
  0xbedfcc23bd02b225U, 0x3edde20bbe90377dU, 0xbe46cc813e06b7e0U, 0xbe9098b23d535b75U,
  0x3e5eb03a3d64750bU, 0x3f39d214bde9a0caU, 0xbca7b2ab3d0a3fddU, 0x3f7901cb3f311cacU,
  0x3ef988a53e82f3d1U, 0xbf1aa4e63f355e3cU, 0x3f43b56b3e3e82daU, 0xbe9fdd8f3e05b734U,
  0x3ebaddf7be50579aU, 0xbe5c8ccfbeab6951U, 0x3f0cba2b3e81cbe5U, 0x3dc577cdbf4fd32fU,
  0x3d2a36b53c2e87a3U, 0xbe47130d3d8e6734U, 0x3e038f6dbf294932U, 0x3e1f4257bea7fd6aU,
  0x3c77cdebbce3de7bU, 0xbee90eb83cb400a5U, 0xbf3a061b3e9ea6d9U, 0xbdc590f13c9988a8U,
  0xbf04e49b3e863592U, 0xbc5b80dd3eb81654U, 0xbd954a1abd28bf6cU, 0xbcf4d4e03d45e2f0U,
  0x3e01fe57be6b73c1U, 0x3efee4483dd363adU, 0x3d63d7a03fa6ed57U, 0x3ed561f3bea05887U,
  0x3ddbd2643e56bae7U, 0xbf07148d3e652710U, 0xbf9156ecbf8d3504U, 0xbe84daffbde195f0U,
  0x3e884758bdb23fd0U, 0xbe97b5d7be006a10U, 0xbf1cad7f3d773890U, 0x3e716524be90fbb1U,
  0xbe5fbc203e22c4c0U, 0x3e9deb32be854562U, 0xbe4b2b5e3e4ac52eU, 0x3f45e3ebbf44d6e1U,
  0xbecb4dc83ec8852fU, 0xbcec39433dae600eU, 0x3e88b1d63e132c26U, 0x3e9ee5b13eacd2b1U,
  0xbe51cdf5bd547928U, 0xbf34c6d5bbabd197U, 0x3f69631f3f7debaeU, 0x3e926dad3f4d4de4U,
  0x3f82c2793e95ce43U, 0x3f0798213f8bac07U, 0x3f70d6d23e34c6e5U, 0x3f6bc9bcbe3284d0U,
  0x3f31eb0d3f76e0feU, 0x3f4eef393f441994U, 0x3f697ce63f7a977dU, 0x3f4178033f452e9fU,
  0x3f0e510f3f8a6b2dU, 0x3f7661dfbdff4d2fU, 0x3f661270beda856fU, 0x3f6bec4e3f7f333dU,
  0xbdcf9d643fa6f255U, 0x3f7a9375bee59b69U, 0x3eb4158a3f6465d8U, 0x3f36daa13f580471U,
  0xbdfcd2033e830823U, 0xbee972a73e5752a4U, 0xbebc3060be045fbeU, 0x4041912ebdfd58bbU,
  0x3e2df532be59d5d3U, 0x3e9304823f447b1dU, 0xbf1a599bbe2a17d4U, 0x3e8a0423be8c15f8U,
  0xbe383d16c0117885U, 0xbf0d0b733e7ae467U, 0xbe4cb09b3e02bae3U, 0x3d4bbaabbebdba98U,
  0x3fdcdf923d3bf4ecU, 0xbe2d8d1fbe637869U, 0x3e2cea90bec851a9U, 0xbbcab36d3e335bc1U,
  0x3f6000263f4a66e3U, 0x3eb5c830bf31a67eU, 0xbe39200ebe9f280aU, 0xbe99ef7bbe12f032U,
  0xbcd39790be3cd44fU, 0xbf2593ac3f44001bU, 0xbe32f8afbe7dacf4U, 0x3f8b7005bf6f69b5U,
  0xc00bc08dbf8bb12fU, 0x3f3d37cc401fe0caU, 0xc02ff44b400547e2U, 0x3ffc80dfbe8f9ef6U,
  0x3f3da3733f3d3e4fU, 0x3e9ebfb8bfad4866U, 0xbf82eccfbf1e4e55U, 0x3f40c39d3ebb4b93U,
  0xbf31ea343dcde664U, 0xbfa6fe083f07d6c5U, 0xbf03d90a3f08ff7cU, 0x3f242908bdfd1b00U,
  0xbe6cbd41bdfb3b5dU, 0xbf2561383d909445U, 0xbc78f699bf45dfc1U, 0x3f34b269be9702ccU,
  0x3f2e690b3edecb6bU, 0x3e229bb6bf4a4559U, 0xbfce65973fae478dU, 0x3eec4c863e1e065aU,
  0x3e9d3b07bf19565cU, 0x3d62d76d3e33a242U, 0x3ef0136c3ec215a0U, 0x3e4d21dc3f2e65e6U,
  0x3eba5e893d90d505U, 0x3eac0dd93e54421dU, 0x3e660bb64019674aU, 0xbf7669a3bf3a7fa4U,
  0xbd925f5abf1e3620U, 0xbd22cd17bee2f227U, 0x3f8fb37bbf2adf5fU, 0xbf229c4e3e9b63caU,
  0xbdf756b83e924403U, 0xbf3b96733e406067U, 0x3da9fca23e89d6a3U, 0x3d97ac60bdc52cc6U,
  0x3f4f054b3e528d91U, 0xbebf0cafbbafbc01U, 0xbe2bc1b5bf69d1cdU, 0xbf13f3693ded6805U,
  0x3c7a94723f03da4aU, 0x3f60c5df3e5e0bdcU, 0x3ed0600dbe4004bbU, 0xbd9a29f3bf265d3fU,
  0x3e754cb7be542f56U, 0xbe11f6abbe84a3afU, 0xbe6e95553f3563acU, 0x3ea4cb853e23e999U,
  0xbf3669a73e847898U, 0x3f6645aa3e9f8990U, 0x3d0b77f6be463329U, 0xbf65f0eb3e7208cdU,
  0xbf7eb0da3e79e752U, 0x4039c11cbf6eecaeU, 0x3f33f863bcc6683fU, 0x3dcd181ebfdb8880U,
  0xbf2645a43f1ef1daU, 0xbfb0d3fa3cbbbe93U, 0xbf03c24bbe8e9e01U, 0xbe3a17353f0bee0eU,
  0x3fac6c943cee170bU, 0x3db63f323ea6e651U, 0x3dedfa0d3ff0a2adU, 0xbfc64199bba50940U,
  0x3c0fe035be51f5edU, 0x3dd402de3e8b7aa3U, 0xbe95fd79be7ac426U, 0xbfb0ce643f0b3b06U,
  0x3fafec59bd891746U, 0xbdf115b2bd871d79U, 0x3eb67fe33e2d11c7U, 0xbedf13a3be55b4d3U,
  0x3ea2b1933e46635aU, 0xbf10589f3e0f08d6U, 0x3f1375b6bdc2fd1cU, 0xbfa01cdd3e2e85c5U,
  0xbe2130553f75dbd8U, 0xbf5018ab3c863508U, 0x3fa42b52be1247f2U, 0x3dd26f8cbef1213eU,
  0xbe83a4ab3de8ec73U, 0xbe7e02d53edde517U, 0x3ecffe8fbede08ceU, 0x3f10063e3d120b26U,
  0x3f5a9daa3e616790U, 0xbd9cf8e33e42714aU, 0x3e9144df3f8f3176U, 0xbf0816113c50cf67U,
  0x3ea11f91bf0168a2U, 0xbea104b5bbd13386U, 0x3f63228d3f46fb76U, 0xbd75aba1bfce8845U,
  0x3d92d2313da6911dU, 0xbecd253f3e1ba784U, 0xbd45d0463e85cfffU, 0x3fdcd217bec4048eU,
  0xbf2f919f3abef245U, 0x3e21cd523e786c8fU, 0x3e5f18a23fcc8054U, 0xbfee8e9ebf317147U,
  0x3b84b8d7be375ed1U, 0x3d0127f43f2725a3U, 0x4061c4133e1ab833U, 0xbee6c1c4be4cd573U,
  0x3e351c43bf18e54bU, 0x3f57e4473d4bba37U, 0x3dc235c83ed0c36aU, 0x3d9946ffbf32c3acU,
  0x3fab99a53e84f234U, 0x3dcd6e233ddde24cU, 0x3e90d9af3f93b183U, 0x3de906273f0dda0aU,
  0xbd6920f33befae48U, 0x3f18f0993f4948ccU, 0x3ea0fc563cf666d9U, 0x3f0834973f37c2a6U,
  0xbf8ec28d3f4e61b6U, 0x3ff80e34bfa1ba3aU, 0xbdd42502bfe6634cU, 0x3f095a753e3b1db1U,
  0xbf2040363edd023cU, 0xbe1d27b63edffeecU, 0xbe92ad87c019393aU, 0x3f5fc1953f28713dU,
  0xbe0f3bd63e90f580U, 0xbedf0ac9bf449022U, 0xbf1b5baebe74e407U, 0x3e3163f8be6020b3U,
  0x3f17e74d3fb50633U, 0x3e9ca281be2826e5U, 0xbe67338abe0e5ecdU, 0xbf61d7743f8b8c5dU,
  0x3f691325be9b630dU, 0x3eb61bbfbf417bcaU, 0xbd88d2063e2376beU, 0x3e9109773faee71dU,
  0x3d6a378a3d0fe881U, 0xbe12d2e3beb9b7ebU, 0x3fa6fc30bfffa6eeU, 0x3f95f10cbf1b5842U,
  0x3f3e62b13fb7610aU, 0x3e73854a3dd06ea8U, 0xbdf78b583fb8cbb2U, 0x3eb219283f25a07cU,
  0xbc93ba203f84651bU, 0x3f3a4368bdbbd620U, 0xbe523d093fef2ce3U, 0xbf565df33d80f0e4U,
  0x3faf0a213d7aba3cU, 0x3f5ce2923efdae0cU, 0xbe3b8f2d3d8cef72U, 0x3ebe5a7abec3c695U,
  0xbf5c160ec095148eU, 0x3eace6c63e40c39eU, 0x3e2a45643fc01803U, 0xbfc296443dd1b250U,
  0xbf4a39b1bec9f36dU, 0xbf0d27003e05a6ffU, 0x3ddcbe633e5dbf0fU, 0xbe3344aebf08c2b7U,
  0xbf4b7da0be25dddbU, 0xbe9106dabed48538U, 0x3e2be3703f82ed6eU, 0xbd9606973e570060U,
  0xbd9f880a3f354ee5U, 0x3d8b06173e9645b1U, 0x3f38a422be93aa61U, 0x3f401cdd3efc2cf2U,
  0x3e938785b8a93294U, 0x3ea51c9b3dc065beU, 0xbdeaee00bf45ca6aU, 0x3e3b1d7abe0e7506U,
  0xbe96a59dbecab734U, 0xbf09a5b53e8f8133U, 0x3f0c76abbf9ac87dU, 0x3f12a9db3f10abcfU,
  0x3eb3f9fcbf488e77U, 0x3ee5aa01bf713d54U, 0xbedda4d9bf1acca9U, 0x3f2bebfc3fcee4a5U,
  0x3eb6ea713f21b1deU, 0xbeebb03c3ecc1a95U, 0x3f3137f13f456cc8U, 0x3e5df74c3fae8d13U,
  0xbf433e48be4e4d1cU, 0x3e834dcd3eb423a6U, 0x3efca07c3f45727dU, 0xbca066a53de891d6U,
  0x3f84752bbe49dca8U, 0xbe8a98e43f89b2ceU, 0x3f442c483deefd7cU, 0x3f2c4dc5bf9fa1a5U,
  0x3d44a62fbf89942eU, 0x3e7e40823f7dc823U, 0x3f01d0c1be6a965cU, 0x3f0b4b4bbc586c78U,
  0x3d2e0c40be81a385U, 0x3f8d26bdbe4aa40aU, 0xbe80b0853db87ae9U, 0xbe7b02cfbee0de7bU,
  0x3f16361abe7262ffU, 0xbd2c61773e8a9c7eU, 0xbf1dac1fbe3bcb09U, 0xbd2c5757bd11975dU,
  0x3e322cf83d8a4b74U, 0x3d5b58b83f36e96bU, 0x3d4199e03dc59c77U, 0x3f3b66a3bd610c50U,
  0x3ee7b978bf33febeU, 0x3eab7f94be1fb011U, 0x3ece31113f3e37b5U, 0xbf1d4808be93a978U,
  0xbf0ecab7be1c598bU, 0xbe87b6cfbfa49c87U, 0xbf13e2bc3dc1aec4U, 0xbf097861bed5f6e2U,
  0x3fc43cf53edd0dddU, 0xbeb0694a3e5d5474U, 0xbd4e3cb03f3d4e09U, 0x3fce11633eb1532dU,
  0x3f02b005bf27ba55U, 0xbf7a91b83e84b3fcU, 0x3c9566063f0a839bU, 0x3fd483763da32972U,
  0xbee91f203f513ab4U, 0x3dd94ffd3c90aad6U, 0x3dc1c2013ee0dbbdU, 0xbdadc347be953599U,
  0x3e46170bbe2e8aedU, 0xbed1821f3e9f6192U, 0xbf8254033f02748fU, 0x3ea22f5bbe7deb89U,
  0x3ef8b4dfbf2811d0U, 0x3e65b044bf503fbeU, 0x3e3a021bbeb6bd40U, 0x400d54c53f85d684U,
  0xbde21f9ebf98f5b5U, 0x3f1c45c73eaa4a4dU, 0x3f44a83dbf8f74bfU, 0x3f1f71abbebbbe02U,
  0xbf8b99093eef02a5U, 0x3ed1366dbf84a37cU, 0xbf2383c3bf864b6aU, 0xbf4c665ebf66fcafU,
  0xbddcc907bf24ce63U, 0x3c8c074ebebecd18U, 0xbfe0d8b7be8a1c4dU, 0xbf08e18c3ec6c430U,
  0xbdf429493f092a4dU, 0x3f6f02f2bf5b667aU, 0x3f3d00a4bfb4e971U, 0xbe887e9e3d632805U,
  0x3e1192123f0f82a3U, 0xbdffecbc3f4afd28U, 0xbe7ab6efbf5aaac8U, 0x3f2b58f43f86293eU,
  0x3d94bbad3f1bc1a9U, 0xbf3289c13f58fc0fU, 0x3f690ea03f1cdc44U, 0x3f1c8d07bd45bf21U,
  0xbe9798ed3d707682U, 0x3e839d08be4dbc48U, 0xbea3892abf59314cU, 0xbde904cb3f02b2d7U,
  0xc0903be9bfd93353U, 0xbdeb0a443ef1924aU, 0x404ae33f4038e72eU, 0xbec2f7893e6c7a83U,
  0xbebe60513ea98545U, 0x3dc6e79abdae2dfdU, 0x3de5ef623f2ba4bbU, 0x3e540d383e8c5a76U,
  0xbee526033e123f5bU, 0x3f02cc1dbed7368aU, 0x3ea54472bdcdb810U, 0x3e92bac5bd1398a9U,
  0xbd3eb3313ea3dbb2U, 0xbd3b7659bf1b843eU, 0xbd1c0e1d3e83a751U, 0xbf0f8854be186e74U,
  0x3e186c6e3d456ac1U, 0xbe8c566e3e1a8bafU, 0xbdfc07cfbedd5137U, 0x3d3496543e3ec726U,
  0xbe93b4fdbcea3719U, 0x3e57c087bc69a489U, 0x3d5e984cbda8f3e7U, 0xbe728b423ef05781U,
  0xbdda031e3f138190U, 0xbeb2578bbd82031bU, 0x3d3d08ca3e7b9f25U, 0x3eecd9283ede18f3U,
  0xbd7f8ecdbe941ec9U, 0x3d76f9a33ca67f7aU, 0xbc7f1aefbe89612fU, 0xbf0010cdbd8c3269U,
  0xbb74fc39bea48af5U, 0x3ca2fc993e62d75fU, 0xbe963d803ea9b1aeU, 0xbe6022d73e215faaU,
  0xbeddbe7d3e974486U, 0x3e7bc7053e0ff1b8U, 0xbd7d650c3e4c8837U, 0x3e81a71dbefafcf5U,
  0xbe4ad746beeecdf6U, 0x3e362876beb4c3bdU, 0xbd1f6d2b3ecedb66U, 0xbf0f9a50be42d7c9U,
  0xbe838c573e9b00caU, 0xbd994855bf1b050dU, 0xbea5bf0bbe908412U, 0x3ececa413e49a266U,
  0xbea544533ee82f28U, 0xbdc04414be968932U, 0xbd9a0f38be80c048U, 0x3e4e78203d1065c0U,
  0x3e51b37d3e1e5a97U, 0x3e987e043e81835bU, 0x3ddf5f5c3f0127d7U, 0x3e55e7c53dfbbcbaU,
  0x3ddee927bf14a47aU, 0x3ef51e8c3ee2909bU, 0xbf5a864d3e9df602U, 0x3f725d0b3efdf7e5U,
  0x3ff0fb843f0ef1e3U, 0x3fbe1e003f0d89dcU, 0xbe073ca13f8de323U, 0xbec39dc83f0ff630U,
  0xbec51cc43f1c19d2U, 0x3f3ec5f73f5bad61U, 0xbd0f869dbbf50882U, 0x3ce0faddbc03fb76U,
  0xbc969f033bafe401U, 0xbdd6cdca3d0ac534U, 0x3c61439fbca4c187U, 0x3cd70dc63d1ef139U,
  0x3cb98bbbbd82ee1dU, 0xbd9b84ce3dc84e27U, 0xbd148cc7bd43dad7U, 0xbc044b9dbdbda95eU,
  0x3de960b8bd9ffafbU, 0xbc80bedd3b51782eU, 0x3dc610513d645931U, 0x3da05de2bcbc78deU,
  0x3de373e4bd1821c7U, 0xbd7918063cd70217U, 0x3d1954ea3db26f4fU, 0x3ceb7e213e4f6e26U,
  0xbdb749363cd07a05U, 0x3d4dc5213beaf580U, 0xbd02a58dbd2798c8U, 0xbd5d03cebb6924f9U,
  0xbc469317bd1e895aU, 0xbd2159243cb343fdU, 0x3b69248bbca3b4bcU, 0xbdab6f58bde3482aU,
  0xbd20c5833cde0c7fU, 0xbce383943da1bae2U, 0xbe21e223bbca6160U, 0xbd8542ecbd2b1fb6U,
  0xbe87c75cbd7b7799U, 0xbdb3123dbc8ee0acU, 0xbd45c3353d5e1bf6U, 0xbdb716273d570b04U,
  0xbe24310abd8c5a51U, 0xbdf7f8c0be0ad0faU, 0x3c635005bb7ba437U, 0x3ac387bc3c1c0c59U,
  0xbbd139563c4963f7U, 0xbbbf6e91bc264c5dU, 0x3c0817273c7d3ed2U, 0xbbe87350bcec27d8U,
  0x39fbebfebc7b3fb2U, 0xbd6a0691bdaebf55U, 0x3be833f7bcbba65bU, 0xbc54dc13bd079366U,
  0x3d8928823b8add58U, 0x3cec554c3d5007b0U, 0x3e1cece33e104c32U, 0x3d98d66d3a9d01aeU,
  0x3c70d68dbdf23adfU, 0x3da6aaaabe0f829aU, 0xbb2341a93e215f87U, 0x3daa8a333d0c83cbU,
  0xbdd9db3c3d757847U, 0x3d312bb33cf806c9U, 0x3b0791f8be158f48U, 0xbd97238b3daa433eU,
  0x3caf7cdbbda8fd7cU, 0x3ca74be2bde36fbdU, 0x3d122a0abe00352fU, 0xbc910626be07bbf0U,
  0xbb0d9587be268e94U, 0xbdfbd752be1b7e9fU, 0xbd278237bde3200bU, 0xbdac3904be5d105aU,
  0xbd3c050dbdb84c48U, 0xbe1c506ebd78b70cU, 0x3c1759a23e20646bU, 0xbdece07bbd84aee2U,
  0xbe076139bc6fcac0U, 0xbca9acbc3e4b8a6bU, 0xbc4f92483d9f09ddU, 0x3c34417c3cdc4a7cU,
  0xbd3408123c95a1c6U, 0x3c8ae490bb4cf81eU, 0xbcbfb108bd9ad268U, 0x3c9806503b6dde20U,
  0x3d07cbd23c03aa50U, 0xbd869d3abc1d67dfU, 0x3cb0179c3b192d38U, 0xbe17219d3e335ae0U,
  0x3bf03a1b3db64468U, 0x3dccd366be01a83cU, 0x3e1103f3bdf526f6U, 0xbcbef948bdff566eU,
  0xbd309faabc8a569fU, 0xbdcec2d4be1fbca6U, 0xbda1fb313da49efbU, 0x3d8a1ef6bc9dc07eU,
  0x3ab4f3b1bc2c41bfU, 0xbd04e4963cd3164fU, 0xbcbc4a393ac8a8aaU, 0x39f2f5c03d5083b2U,
  0xbd406f1c3daf0744U, 0x3d0e9ee83c89bf1fU, 0xbd511856bd236bb8U, 0x3d0d5677bc2eb7a4U,
  0x3df3e24b3ce8e67cU, 0x3ba3da7b3db766cbU, 0xbdf8c6253c978ae3U, 0xbd8e2c9bbdb9ed40U,
  0xbd1b559ebdd65b9bU, 0xbdff8561bd3252f4U, 0x3c92b9aa3e26e61aU, 0x3ce869afbdbe7f4dU,
  0xbd4e2bd4bd0699cbU, 0xbd0f43dbbd8fbd41U, 0xbdb93dc0bb995570U, 0xbd3e42693b0075f6U,
  0x3d8026ac3c210addU, 0x3c8348c23d1fb154U, 0x3b7473323dd2f510U, 0xbdb06ceabd4749e7U,
  0x3d61f517bda244deU, 0xbe09a343bdaf2d34U, 0x3d04c8cf3d0e80cfU, 0x3d88bbd93cc54b84U,
  0x3dd79e76be0a6fe2U, 0xbd58bc3f3d3abe63U, 0x3dff5cdfbcf5a804U, 0x3d9edd24be04a1c4U,
  0xbdde468b3e16cdf6U, 0x3d5d2c63bd8e5c1eU, 0x3e0d7e8a3d8955b5U, 0x3d212a19bdd88db5U,
  0x3d2c3391bc682bc6U, 0x3d7494013bec5818U, 0xbc3a63fc3dbdc942U, 0x3cb3220abd5178cbU,
  0x3bc70fe7bc75953dU, 0x3d9d9cf03dcbaae0U, 0x3ca85b3e3d9c091bU, 0xbc060a483d200af1U,
  0x3c0577d33c57a8a7U, 0x3dd38374bdb4a5f5U, 0xbdda204fbe25adf1U, 0xbd28bc10bbb79c44U,
  0x3dc3719ebd0fafcaU, 0xbd8b081bbdbaa5a4U, 0x3e9ea68b3d537671U, 0xbcce23853d3025ddU,
  0xbd46332e3cbe897dU, 0x3d4b7da33da7843eU, 0xbd2d2076bd92dc95U, 0xbaad9e3f3ca89d8dU,
  0xbce38aa23d6b6f99U, 0x3aaddfe5bd1a5778U, 0xbd0810cd3d60405aU, 0x3ca4687f3c8d1c51U,
  0xbd510b953cf14d43U, 0xbd08fa493b37bf57U, 0xba14e9ed3d2d0a4fU, 0xbd7c3e55bd65d621U,
  0xbdba5342be23005aU, 0x3d65a4c5bd776b70U, 0xbe6bae633c6fcc8eU, 0xbe27c78bbce8952eU,
  0x3d5f751d3ca1cb6eU, 0xbd3451b7bbddf368U, 0xbd832937bd8f2c3dU, 0xbd7bcf18bbb03c49U,
  0x3d633237bc6b39daU, 0xbc81abcabcfa55ddU, 0xbc1d0b2abd47779eU, 0x3c7941da3bb3d1eaU,
  0xbc8cbdf2bb23f933U, 0xbc9fb0733e4df626U, 0x3bc56d183c956febU, 0x3ddbf395bd989883U,
  0x3dd11258bc88defcU, 0xbe15cc9dbcde84f2U, 0xbd87bada3d2a131dU, 0xbae392d8be0a5aebU,
  0x3d5efe083c9afd2eU, 0xbbeb9e4dbdc882ddU, 0xbd91015c3db94632U, 0xbda17a2bbd2fde93U,
  0xbda19e483e0cdbcaU, 0xbd946f2b3cadd7d7U, 0xbdc6e7adbe67c903U, 0xbe86d1f9be37e0b4U,
  0xbe5dfd7bbd9cf7c1U, 0xbe619c963d8fdb62U, 0x3b0deb3bbd32340eU, 0xbdabc5e7beb8f1d5U,
  0x3e5e9a14be3a058eU, 0xbd09e5cabd1ad1d8U, 0x3c3f9fecbe829507U, 0x3eb133d6bd96c052U,
  0xbdfbc8583e6127feU, 0xbd5cdfbf3e25a338U, 0xbdcfad883e6bb5dcU, 0x3c41e7753de6e3a4U,
  0xbd9774603d6e4fa4U, 0x3def4f673d94255bU, 0x3e0c76113e2e5d37U, 0xbe8ba9c8be164c00U,
  0xbc4315a0bd954a39U, 0xbc9d54e1bb2e2513U, 0x3d2bdd033db72539U, 0x3c347b953b56d532U,
  0xbc81d3c7bd6c3c71U, 0xbd441918bd517eb5U, 0x3d979bcdbd064a11U, 0x3d5970bcbe0489edU,
  0xbc4c5a673acb397cU, 0xbe2f2f29bd4440f9U, 0x3e347f2abcb75c1bU, 0xbd19f7ee3e2c781aU,
  0x3d8318f23befc110U, 0x3e65eab3be17b8bcU, 0xbdd52975bd02eb95U, 0xbc8ac4473df3b711U,
  0x3e05e8033e1fd0f5U, 0x3daa571dbde7749cU, 0x3c8e8393bd343b66U, 0x3d53e55e3cd9d5d4U,
  0x3d5560c63d8226c8U, 0xbc74689cbbc005e0U, 0x3c040cd0bc0685adU, 0xbc5d60c6bdc71060U,
  0xbc9f42a8bb246bb1U, 0xbcf8442b3d31c59eU, 0xbd8b85e4bac19359U, 0x3b8642d3bca48c83U,
  0x3d6f2466bd3d2d70U, 0x3d6acaeebd1970f4U, 0x3cc568c0bd9a297eU, 0x3ce660823d29f164U,
  0xbcdd9e733d076ec7U, 0xbcbea184bb923b25U, 0x3d3536e9bd49501cU, 0x3e4549b4bc8c106cU,
  0x3c0054df3ce103b5U, 0xbe3d6f9bbe0787cfU, 0xbd42134fbe1d7500U, 0x3c6201de3c9e9e1bU,
  0x3d22d9c83d1faadeU, 0x3bb7fc843c75c6dbU, 0x3d828b253bc4376dU, 0xbbdb72d2bdceb04aU,
  0x3e1082bf3d1b6a36U, 0xbd4741e1ba8b23acU, 0x3dc415f23d70def4U, 0xbd8481f9be1de165U,
  0x3d68dc623d8e8380U, 0x3daf790e3d86655bU, 0xbd5884ed3d02373dU, 0x3c720ac33c91dfd2U,
  0xbd03de84bcb3f400U, 0xbd696cbdbcc2ede7U, 0xbd8ed6fb3dcb6835U, 0x3deec6f53d0a6f1eU,
  0xbd1dd5f9bd4617f2U, 0xbe24a2293e45ff4cU, 0xbbfa1c5abd1fa0beU, 0xbdb4b99dbdf300b3U,
  0x3b40c7dbbe5014feU, 0xbe4aa5a63e09b2eaU, 0xbc9d5cafbd927733U, 0x3dc0bc463e31106fU,
  0x3d280a273cac50f5U, 0xbe27c6c3be236299U, 0x3e74036f3d605444U, 0x3cf45ea43ddad0d6U,
  0xbe379dcabe9aee29U, 0x3d5952d9bdc99e37U, 0xbc711b673e044b66U, 0x3dee0d11bd9e41d9U,
  0x3cf73f73bcb1e553U, 0x3c4346953c8bbeb3U, 0xbb8d44a53d4b1329U, 0x3d075d183c74d483U,
  0x3beee4c33d06738dU, 0x3d01c6023d1eeba6U, 0x3be410ecbcf26382U, 0xbbdfe8063c40a1efU,
  0x3d1874623c4d7e7dU, 0x3d94e21f3d55473dU, 0x3ce157223b429610U, 0x3ca34ba7bd781276U,
  0x3e185632bd609317U, 0x3ceb93ab3cfbfd5eU, 0xbc399c77bc7a8c17U, 0xbd1438f2bdde036bU,
  0x3de85a003ce7717aU, 0x3bfb7cf33db1baa8U, 0x3ea9e80fbe64c120U, 0xbd87f097be4e423eU,
  0xbd6c70fd3eedfa04U, 0x3db0f630bd5d9d48U, 0xbec9ab37bc86a42dU, 0xbda1e9873e9125f1U,
  0xbf1287c7bec85e99U, 0xbe02db053d4839b5U, 0xbe14c1ebbdc4b59fU, 0xba9252e53d788df1U,
  0x3da8b476bdc821f5U, 0xbdd072cc3bc99037U, 0xbda3ca76bd9694d4U, 0xbcf492213d9b46fcU,
  0xbd882b473e080536U, 0xbbb17eff3de47fa4U, 0x3c220e2ebd517bffU, 0xbba481f63e1cbb93U,
  0x3cb2be4ebd074888U, 0x3b2e83ca3d669cf2U, 0x3c7771c83ca4b49fU, 0xbdb4d155bdd3fd0fU,
  0xbc7baac6bc551699U, 0xbd129962bd716edeU, 0x3c8059eb3d5c7b14U, 0x3d24d6243d21b8f5U,
  0xbd52ae0b3c90b3b6U, 0x3dca3a19bde0d745U, 0x3e41fd2d3def3a6dU, 0x3e087a65bd635735U,
  0x3cff1d5b3db9f8ceU, 0x3c6f32733e4f6c69U, 0xbcb2a9193c41f797U, 0x3e3864a5bddfa43eU,
  0xbdb26c82bdf72b24U, 0xbc6b140cbcc8af57U, 0x3b294aadbc391b54U, 0xbb2c1117bce27e27U,
  0x3ce4369fbd05b1d9U, 0x3ca77725bce311cdU, 0x3cbb2fdb3d41ec3eU, 0xbba4086cbc6e09d7U,
  0xbbedfe8f3d3676bcU, 0x3cbfab13bc6d0a93U, 0xbbf780483c88c44bU, 0x3d1de3a7bc0f90b5U,
  0x3d985d933ce02e19U, 0xbd37d5073d99bf0aU, 0x3d43aba93d264c49U, 0x3c0e64513d0c28eeU,
  0xb9de01af3cf4530fU, 0x3e075d883b63a13fU, 0x3d28fff63c559fabU, 0x3ccd4631bc963046U,
  0xbcd781cfbcaa02beU, 0xbd887dd3bdb71f2eU, 0x3dc3799a3cfe8a67U, 0xbe3ef7613d5700a0U,
  0x3c57a02d3ce637f6U, 0xbddb3bacbedce068U, 0x3d98018ebe2d23ddU, 0x3d594eb537bddc85U,
  0xbe54197fbe22882aU, 0xbe568a9abe45115fU, 0x3ebd61ccbe1e1731U, 0xba1accf93a544326U,
  0xbcf6bee83d980173U, 0xbd7ee5043d8da3b0U, 0xbe5d31e53e652492U, 0x3a7121fd3e1b6480U,
  0x3e6de984bda6c0dcU, 0x3de3cf5abd5feb46U, 0xbb9143823b89c03aU, 0x3caa4d1abca89289U,
  0x3b78e0243c6743fbU, 0xbda3c9263c612849U, 0x3d2263983d3aa534U, 0x3c21acb13d422b3dU,
  0xbc87b71bbd8db996U, 0xbdb9c20d3d8d06f5U, 0x3c9f8e553d596ea7U, 0x3dcd458cbe130186U,
  0x3c0f82e3be57ffa4U, 0xbe4485983e0a9dbcU, 0xbbb17007bd14223dU, 0x3c6d2621bdc7b434U,
  0x3e0fdefbbd56dc60U, 0x3c193e553dcaa924U, 0x3da36dd2bdd5314dU, 0xbdba22a73e013978U,
  0xbcd9d8abbcb51168U, 0x3c2359603cbc4731U, 0xbc930abcbb9819b7U, 0xbcce0883bde90f00U,
  0x3b36cc6e3c959bb3U, 0x3cb990183c85e2e7U, 0x3d93dd443dca3a65U, 0x3dca0757bd503790U,
  0xba9c57cdbd0611d9U, 0xbbd5f0f5bd4ca14cU, 0x3e1d49123d3d2c1bU, 0xbd4e88623e55e9bcU,
  0x3e023512bd615c78U, 0x3e5a0b3cbe2128e2U, 0x3db08109bd457737U, 0xbca05be0bd9dd1adU,
  0x3e536d4d3db905e7U, 0x3d56c7db3db57844U, 0xbd8d28d5be530a9eU, 0x3ddb55eebdf420eaU,
  0x3dbccc943b7f7e08U, 0xbb17bee53eb11259U, 0xbd0e87cbbd5a90f5U, 0xbdfbe0ccbd9886a7U,
  0xbef95987be543f6bU, 0xbd88c9a2bd010cc7U, 0xbe44ac33bdc42fe3U, 0xbe9acc223d8e9df7U,
  0xbcfd5995be753352U, 0x3be2eac13dfdbd52U, 0x3e3e6798bdda9f77U, 0x3e353650bec13af4U,
  0x3dd4316a3da3091eU, 0xbda9cf9ebd26f6b1U, 0xbd5338913e79c0d9U, 0x3e1e8dc5be15d0faU,
  0xbc51247e3a25f3e8U, 0x3c618f993b0140fdU, 0xbc487453bc7715b1U, 0xbcf2c3c2bc90e5c2U,
  0x3bcb39a73d329be0U, 0xba7968c3bcfd791dU, 0xbc25cfb83c2000cdU, 0xbd7fb28b3b1a2a0fU,
  0xbbdff2aebbb29c93U, 0x3da99035bc7a6a0fU, 0x3db70f883c926858U, 0x3c9d96e83ce99652U,
  0x3db189393d94ff3bU, 0x3d8615e53ce1109aU, 0x3d5c9dddbd74965eU, 0x3d078ac8bd631748U,
  0x3dc9924e3d47701dU, 0x3d2ce1353d5b633dU, 0x40ae7e02be227118U, 0x403ea713beab4defU,
  0x3f7e681a3f31e0efU, 0x3e359068be02a2daU, 0x3f1d29fa4025f75eU, 0x3f483bf2402da048U,
  0x3ef7e18f3e54f684U, 0x3c075980be0f3cecU, 0x3dba40283fe71fd4U, 0x4002c7943e262804U,
  0x3e8aef583ef5b10cU, 0x3b7064004012031cU, 0x3e96b6fa3d6230ccU, 0x3e5b46b13eb57bacU,
  0x3fa6a85e3f8d8c26U, 0x3f7db079bdf6cf9eU, 0xbda7e8d43fad122eU, 0x3f132348bf17589dU,
  0xbf46863dbe5b7bb6U, 0x3e193c8b3f30fb2bU, 0x3e6072063eb24d95U, 0x3f31f4b73df94e4aU,
  0x3dba7b123fa949feU, 0x3fe2f0c43f34d46fU, 0xbdf22d20be4dbb9aU, 0xbe3acb333efbbc24U,
  0x3c2931ecbe30d966U, 0x3ceec614bdaf8052U, 0x3df8d6df3d387169U, 0x3dd6b3b73eac3952U,
  0x3bb6ec783d5ba691U, 0x3ea33f94bdf3e7bfU, 0x3d5580b63f17d202U, 0x3f24226f3ea09b53U,
  0xbe3a3c683e92c229U, 0xbeae09c5beab3fb6U, 0xbedd979bbe1539caU, 0xbda8b846beeb74acU,
  0x3ed5ea0a3eb7025dU, 0x3b0ea93a3cd09a5bU, 0xbea47ac83ccd96ceU, 0xbf1f2132bf560d95U,
  0x3ee8768a3d5204afU, 0x3e88abb13f197642U, 0xbe2d19ef3d3bac46U, 0xbd2199a43edc0267U,
  0x3eed52febebe4ebaU, 0xbf11779fbe0310b1U, 0x3e6128bdbc2f064aU, 0x3e0b140dbedef76fU,
  0xbf566edf3e68fdb9U, 0x3ed8416a3d76b5f7U, 0xbe913e3d3f6de1dbU, 0xbdc70e7fbef56048U,
  0xbf211a30bf02444cU, 0xbef08378be856c76U, 0x3dfadbcabea0812dU, 0x3ea5eab3bdc5db0aU,
  0xbbd2bba73ea77566U, 0x3eb14af83ede9b99U, 0x3e64a247bcbb50eaU, 0x3e1cd5053df86d9fU,
  0xbda304da3ddcdd97U, 0x3e99b77d3e3c17a1U, 0x3db5b2b63e23c006U, 0x3e17664d3e5f3cafU,
  0xbf119de2be4886c8U, 0xbf1be42dbe56f061U, 0xbf18e324bf765052U, 0xbf61cf62bf01ebe8U,
  0x3e293e7ebf0533b6U, 0xbd84cbf33cc1cceaU, 0x3e8a03483ecf2035U, 0x3e77e6133eab87e1U,
  0x3edc28193f0a8419U, 0xbf81f720be81966fU, 0x3f0013fbbfbdee84U, 0x3f1e45c43fa69422U,
  0x400079903f281db6U, 0xbd1dcb5c3fb50354U, 0xbeb66366be491849U, 0xbe72cdb8bd8e3168U,
  0xbd877aafbef13c0eU, 0xbe23aa14bd3d2d8fU, 0xbd1c1ea2bc9d3e3fU, 0xbca90599bd19bf6eU,
  0xbd3a8302bd54449aU, 0xbb9b6e27bbdb13cbU, 0xbd1c53bcbc3c68e8U, 0x3e7cc0333e5b9e8aU,
  0x3edf909e3bc1e58fU, 0x3c14ebd63ee95047U, 0x3ec09c113ead6786U, 0xbe15cd06bd1b71e5U,
  0x3dd7eba8be2b9c94U, 0x3f0d2e3f3f06de2fU, 0x3f1c90273d563d69U, 0x3d4ea3ba3f2ef038U,
  0x3e1a2a1d3dff1c39U, 0x3e78f0763e13c83fU, 0x3e193fef3e89f563U, 0x3e05c10e3e857d8cU,
  0xbf05cedfbe213a24U, 0x3e166c7cbedfec50U, 0xbe14d6b4be5251fbU, 0xbd0ff2b03e2b7d1aU,
  0x3ecc3ceabd6c992cU, 0x3e75a21f3f211bb7U, 0xbe66abf93da3cfdbU, 0x3c70325abf070c12U,
  0xbdd61fb6be245374U, 0x3ec7d0153e5a2765U, 0x3e01fe7a3e1e7afcU, 0x3e9443e83ea4bff9U,
  0xbe5e50fcbded0071U, 0xbd3fdf0ebe10b95bU, 0x3d873c9c3e8da7e6U, 0x3f76bd5cbdac01efU,
  0xbe08ebbdbe86f535U, 0xbef617363f71815aU, 0xbfa0e4cd3e6e7e34U, 0x3f5677fa3ec2fe78U,
  0x3ff046ff3eddd680U, 0x3dba67443fe16b8bU, 0x4029ae64bf99bfb4U, 0x3f533ab33ec7bb8aU,
  0x3f33d5b0404db454U, 0x405d3e003e99fa66U, 0x3ebd1e523f2c1b53U, 0x3e5e5ff2bed184e4U,
  0x3f60fd534015d94cU, 0x4022b10c3c022a00U, 0x3e836bc5bed6315dU, 0xbe2db2603e95e1a5U,
  0x3e68b796be018bc8U, 0xbcc89a6bbeab4d7eU, 0x3eb33ea93ea2c1cbU, 0xbec790903de28770U,
  0xbe74fefc3eb44541U, 0xbf1c3c8bbe16646fU, 0xbea8015cbeab7244U, 0xbdf622c2bc8bf653U,
  0x3d4917033cf26635U, 0xbda496563e8a4a2cU, 0x3e9f3141be536809U, 0x3e37345fbb907a23U,
  0x3eee99f93dfa6ff4U, 0x3e371cd4bebe4062U, 0xbdf7ca80bd95dfddU, 0x3ddea59dbd950611U,
  0xbd766af0be6d18d4U, 0xbe27a0743d20c383U, 0x3d107016be4ad522U, 0x3e31c1833d955fdbU,
  0xbdf621b5bf205cfaU, 0x3e8193793d4dd19dU, 0x3c8f3977be656cffU, 0x3cb13e7f3d2bd2d4U,
  0xbe0db9fcbe8eaebfU, 0xbd2f87a33deefc1cU, 0x3e8d3dd5bdb81fd2U, 0xbeb03167be04b0bdU,
  0x3e0887c03b99e309U, 0x3ecc8208bd5e341aU, 0xbe804eccbdb3fe9fU, 0x3c9eb7e0bf560e78U,
  0xbe4ccc643ead1efcU, 0x3c86df443b950bd9U, 0xbdcbee143e92403cU, 0xbe2161d9bea8ffcbU,
  0x3d8835bcbed8a8c5U, 0x3e93e043bd7c26f1U, 0x3de492abbe25f26dU, 0x3d87df4c3e1e0b96U,
  0x3e8840663e672eceU, 0x3d4ae1c3bd8a4351U, 0xbd65624b3c70669fU, 0xbe091863be03ce95U,
  0x3e31097fbe8bebecU, 0xbdc28a5fbd813e65U, 0x3d8b66f9be74a89fU, 0xbce174603dbbe9a9U,
  0xbc84575d3ed0a39cU, 0x3ce8fbe0be89f466U, 0xbd5357a83dc5454aU, 0x3e65cac83dbfbc8bU,
  0xbe7352d63e0aa585U, 0x3e9a4811be369e69U, 0xbe8ca1b5be3b81f7U, 0xbe7f3e55be7d0e3cU,
  0x3e7bf18f3e0e9a1fU, 0xbd317bf53e9834abU, 0x3df484febe3a19e7U, 0x3e287386be44ad54U,
  0xbda337bb3e1503a4U, 0xbe21a1f7beea0a5eU, 0xbefb9c0abc99567bU, 0xbf15ac52bbc7ae3bU,
  0x3e9ce3e0be86b5c0U, 0x3ca57a473e2d5df0U, 0x3eff42f63df01e6cU, 0x3d3fe914bee109a8U,
  0x3eff08c63db1f30bU, 0x3f378282bdfa9478U, 0xbe8f4f423e73aeabU, 0x3ec465093e5f8cafU,
  0xbe02c1debdc86215U, 0x3c40fad5bd949750U, 0xbcc05ed63c9bdd13U, 0xbe27019fbe5d809dU,
  0x3ec79f13bdf605a1U, 0xbe8d824a3e14570cU, 0x3eb32c253e0b9744U, 0x3ddd3c31bd09d929U,
  0x3ddd939e3e977da1U, 0xbf8e596cbe3bc37aU, 0x3f0af10a3e99d513U, 0x3d4f9cb63d828e62U,
  0x3e47a66c3dff9ce6U, 0x3e5a6bad3e92bdfbU, 0xbec052a33b027a5cU, 0x3e80fa39beac8e5bU,
  0x3dc07f60be389161U, 0xbfa907ba3db2e2d9U, 0xbf3ca0b33e53e70cU, 0x3ef30027be9fdff5U,
  0xbe078c133ec94b5dU, 0x3f25b4c1bdc497acU, 0x3f6ec97d403991d4U, 0x3f77d8923f5ef000U,
  0xbf525072bf060a98U, 0xbcf424f74023d6b3U, 0x3ec185303f3b0b64U, 0x3e9cbb9a3f390713U,
  0x3f2d05fc3eb5b240U, 0x3f3d951d3f5ceb16U, 0x3e252ed93de110d6U, 0x3ea490953df28222U,
  0x3ecee1a73e747688U, 0x3eb9069b3e424b34U, 0x3ee0e06b3e7643c7U, 0x3e71b7273ead8476U,
  0x3ee83f393e528104U, 0x3f059cb83e20f7faU, 0x3eda77253e658e75U, 0x3ec6208a3f0135f3U,
  0x3f0728bf3f7efb18U, 0x3ec13b0a3f540f0cU, 0xbc8d2db23f0d04e1U, 0x3cf82c8abd71d93cU,
  0x3d4c308dbd87477eU, 0xbe1a69debdfc5edfU, 0xbe90d8bfbbfddf70U, 0x3f525faebdff3d95U,
  0x3f07c11f3e933b95U, 0xbcfd11413e72c172U, 0xba28392bbcec9e04U, 0x3cb8735c3a853fdaU,
  0x3cf45fb43d0029beU, 0xbda26a7cbbb7a574U, 0xbc3227bcbbe49790U, 0xbe8be1de3d8ee71fU,
  0x3dd2717bbc2fdba4U, 0x3e41ba363da27a9dU, 0x3f479135bdf70570U, 0xbf92c18c3ec7d1abU,
  0xbe8da89bbec05483U, 0xbece05fd3d6ea599U, 0xbe985f923f1e44fdU, 0xbdbed15f3d95a3aaU,
  0x3e964202bf458cf6U, 0xbe8f5ac8be0bf1c5U, 0xbe517c753f1609b0U, 0xbe3ede5dbe99ed79U,
  0xbd6127b73d4e9ae9U, 0xbbf4ac8fbd7b893aU, 0x3f379b6fbda63ddeU, 0xbf13bdb63e97b2d6U,
  0xbe90a75dbf27865dU, 0xbf162871bdd6e16cU, 0xbf39d21f3eff5278U, 0x3efd0b31be8b85cbU,
  0x3d98373b3d35c6a6U, 0x3d774700bde7ceb4U, 0x3cc0ebcebe2cebd7U, 0x3ed26d00becb1d1fU,
  0x3da5f0f43f00655aU, 0x3e6557603ee7430eU, 0x3e05c4c5bd24768aU, 0x3ae4ae2dbd583bf1U,
  0x3dae37a7bd1080ddU, 0x3e946f9d3e50ef03U, 0xbe8331053d8c52a5U, 0xbed80179bf46a0f5U,
  0xbf01cf213e01d823U, 0xbe5c06debef0eb4aU, 0x3f73e83abee7fbeaU, 0xbf11dc2cbdb88becU,
  0xbd9149d93eb0f342U, 0xbf6026e33d2a0c54U, 0xbe001c3d3d5cf3a5U, 0x3e0dee003e246bd8U,
  0x3ea74152bf075925U, 0xbcbc25d33e3aa433U, 0x3f1a23dfbe6a385bU, 0x3f1395723edb9162U,
  0x3ed272053f01197eU, 0x3c325fae3f1e478fU, 0x3f13ac1b3d87fbacU, 0x3eac756fbf1f4a3fU,
  0x3ddbe24f3ef551ecU, 0x3e663b153e6a65dcU, 0x3dacf4ed3cc8d0baU, 0x3d2b0e463d6b4d1eU,
  0xbe20d04e3efe8548U, 0x3ebf9ec4bdac3d1fU, 0x3f6d091fbed764e7U, 0x3f24d5783f090539U,
  0x3dcc0cc43e1e0862U, 0x3e4f44363f287ac5U, 0x3dedf79c3ceceb83U, 0x3da19b2bbd31b187U,
  0xbc2c3f2f3c0deb47U, 0x3d89ce25bd1af05cU, 0xbf54a89abf1ed4e7U, 0xbf9a7010bf044418U,
  0xbe70812c3f3af9c5U, 0xbec48386bdd512a2U, 0x3f82f90dbf46f427U, 0xbfaaed8cbe89a3adU,
  0xbe6f5f0d3e4980adU, 0xbf80d7ccbd0ebc4eU, 0x3a9340b13eea3cccU, 0x3e4835fb3da85e00U,
  0x3e24f2b9bf2ae1a7U, 0xbe1e793fbd8c9fd2U, 0x3ee63c953e1d74a4U, 0x3c966bdcbeaa38d7U,
  0xbe8d7ef63f01ec22U, 0x3e4d5c963ccebf72U, 0xbe28a8353e8f1102U, 0xbe114647bdd3bcd8U,
  0x3e1c32d0be5aa8d9U, 0x3cfc35483d5e4a90U, 0x3cf1a97dbe84a75aU, 0xbe99f7573e32503bU,
  0x3d946826be348cd7U, 0xbe6a7973bcf0101cU, 0xbdf47e6e3e769bb7U, 0xbe80845cbe445657U,
  0xbe3c36b53e743a72U, 0x3e158058be05285bU, 0xbdfff0da3f0fffe4U, 0x3d3aa95abed70a63U,
  0xbf3a224cbec008b8U, 0x3e5799b7bec820f4U, 0xbd6fc4f23eb06d0bU, 0xbd6bcfecbed0abdfU,
  0x3d852490bdae2485U, 0xbda95755bd19ff5dU, 0x3ecd8491bd9f782bU, 0xbe7517e23e2b11a8U,
  0x3b358ac9be1def3fU, 0x3ebebefa3eef2a28U, 0xbdee460d3f385c8cU, 0x3e516bbc3e7d3f30U,
  0x3dd6b0b3bf70e3cbU, 0x3da1edeb3dc230caU, 0xbe341497bf5b94a6U, 0xbda48d38be3f7df8U,
  0xbf135de93eaa8271U, 0xbe83cf50be7deac1U, 0xbe5a1fbebd106810U, 0xbcb8978d3daef061U,
  0x3dc30652be224ee3U, 0xbdc7e3ffbe382c5cU, 0xbb0a2b7ebdc17759U, 0x3cae4251be0a2005U,
  0xbc7728c33e83ff13U, 0x3dcdf0efbc814ae4U, 0x3eb78442bda2ce56U, 0x3eeeb1d33f1cc503U,
  0xbda833dc3d19e211U, 0xbea1a728bc72baf2U, 0xbd5f36803dd3fb1cU, 0xbdd58da2bde6ee48U,
  0x3e69c9d8bd5a3f9eU, 0x3e1bed2d3e4e2f58U, 0xbd496bd4be0e9755U, 0xbed851963dcba2e0U,
  0xbd69a87abe362818U, 0xbe09f5f4bd181ee0U, 0x3dc984523f42625bU, 0x3e0f5ad33f01bcc4U,
  0x3f0431733f82acf8U, 0x3f63f6c13f52427dU, 0x3f02000e3f18e859U, 0x3f7568d63f6eeb8eU,
  0x3f82e5e23f2a520cU, 0x3f2043913f93d367U, 0x3f79a5533e2f9c3aU, 0x3f23b91d3f032642U,
  0x3f39f2293f484f9bU, 0x3f51bb113ee8af2bU, 0x3f1288fb3ed165ccU, 0x3f7ce6f03f313860U,
  0x3f4ad1ae3f947834U, 0x3f7cc0c23f2f3438U, 0x3f9ad7bc3f95ec29U, 0x3f60a1533cc368cbU,
  0x3f63ec3c3f7a57b2U, 0x3f755dc23f9ded98U, 0x3db582593d3156e2U, 0x3d8cbe223da01887U,
  0x3da2835c3db5c883U, 0x3db3b2183d33ca14U, 0xbd7c4a403d839487U, 0xbdd64a65bda541dfU,
  0xbda11d12bdc2145aU, 0xbdf439afbdbd759aU, 0xbdd65b79bd8d4aacU, 0x3bd35d963d0609fbU,
  0x3d0fa6f33d0492c4U, 0x3d301d553cc52a4cU, 0x3cf57f433d1fcd32U, 0x3d2cfa6b3c9bba58U,
  0x3d04484e3d8900b7U, 0x3d7f617a3d4125dcU, 0xbd6f941b3c18f0d6U, 0xbd5f4843bd696b0dU,
  0x3e9916be3e1b5d7dU, 0x3e80133a3e8b1d75U, 0x3e9795c33e99eaf6U, 0x3d6adb613e177d00U,
  0xbd2fef063e3028dfU, 0xbe008c3fbdabeaf3U, 0x3d258fb63c880d73U, 0x3d5c0ac03d08b13eU,
  0xbd1b05013c3cf085U, 0xbde6c1d2be5ae89fU, 0x3e2305b8bdd808edU, 0x3e83143b3ea9c907U,
  0xbe80f0b2be8a8b05U, 0x3dba5d1bbec04b10U, 0xbd94e4edbe1219dbU, 0xbed810473df4a001U,
  0x3e9b7750bc36927dU, 0x3dd5167a3f427fdfU, 0x3d1cda3d3cf391e2U, 0x3cc6a332bd776384U,
  0xbdc5a85e3d86f8d1U, 0xbe6c1affbab8578aU, 0xbe09282c3e37add9U, 0xbe49c586be657b13U,
  0xbe55d622bd10cceeU, 0xbdb5db41be44309cU, 0xbeb9c07dbec7c7aaU, 0xbdaf206cbe40d059U,
  0xbe357242be721c84U, 0xbe9f5bf3be15f4beU, 0xbe58825bbde7165eU, 0xbd62166ebe6d0e20U,
  0xbd26cc69bd006497U, 0xbd855a25bda5152eU, 0xbc4da32ebd750ba2U, 0xbd5571cbbd3cc7adU,
  0x3deb4c99bc47b3b1U, 0xbd9f92a53e6221d5U, 0x3e9a84a93cf9d6e9U, 0x3e2141383d4cd04eU,
  0xbdeb280a3dcba2abU, 0xbc498ea6bc232b8eU, 0xbd9c148a3bcf05cbU, 0x3d04cbf9be9dc3a1U,
  0xbe86849abdc95a24U, 0xbd2597dfbe2bb920U, 0xbe99b98ebdf8bd52U, 0xbd2d4de5bd950de4U,
  0x3d92b4893d416e41U, 0x3e9dd4a23ce45d38U, 0xbdaec3a5befdff1dU, 0x3bcf5273be61f3bdU,
  0x3c1d0263bdd05ac3U, 0xbce2ce0fbe675d8cU, 0xbdafee95bd8457d1U, 0x3e03fedc3d794c92U,
  0x3dd4b29cbe23bc17U, 0xbda000913e4d34a5U, 0xbc89e0743cb0b85cU, 0xbe832de43e83fbdbU,
  0x3cc460ecbe3ad3cdU, 0xbd0a25b7bdc8c6a7U, 0x3cae4d6c3dcfaee4U, 0x3eaa02303da0d643U,
  0xbd95f465be21c694U, 0xbdec48aa3e8972b8U, 0xbdc654a73e19b60dU, 0xbe82920a3e29f39bU,
  0xbe92f9b6be5e4a98U, 0xbe1045bfbc86d7aeU, 0x3d1e16d6be2e90abU, 0x3e91a4143ec5fc43U,
  0xbbbfb6be3d79498eU, 0xbdd1cdd33c2e5b57U, 0xbe046bfe3d45264aU, 0x3cb1a8123dc9065eU,
  0x3df32638bda1786eU, 0x3d8ec9143d3c7e27U, 0xbf0684ca3d9c1fafU, 0x3e2016783e31b7deU,
  0x3dd703a5be23549fU, 0x3cee566d3d3a77e5U, 0x3f1aa697bdde8715U, 0xbd58eecbbe5263c3U,
  0x3eeddb363e4e7f68U, 0x3cc5a11f3f0ae2a9U, 0xbdbef0bfbd9c1245U, 0x3dacecf73d62c07cU,
  0x3cefedef3d7ea574U, 0x3dc1964dbd34a401U, 0xbbb963ba3b094705U, 0xbc401c76bb28686eU,
  0x3b88bbc73c15dca3U, 0x3c1279f0bc81c261U, 0xbe09ccb23c0476beU, 0xbdb36a8b3e4dbd9aU,
  0x3eb6d4123dcd421aU, 0x3da908c3be27f52aU, 0x3bb6f6ca3ed2653cU, 0xbc0e67efbd70d8d0U,
  0xbcf695d3bbb2d230U, 0xb8900bf53c5b387cU, 0x3b0126e7bc820735U, 0x3e9b41c33c96210aU,
  0xbe243a00bd785ad3U, 0x3e5042d4bc5f6695U, 0x3d7f9e97bea967c0U, 0xbe7aa32c3df7d73eU,
  0x3e22c09bbd97cbdeU, 0xbdb03a1fbd4e6887U, 0xbe8f3eedbdd4b0daU, 0xbd6d9b8b3d0d96f5U,
  0x3d8e4c8c3d293256U, 0x3cf88ddebe908ec2U, 0xbc53add9bc01ba3fU, 0x3c0bbf413d6157e6U,
  0x3db7196b3ee0464eU, 0xbd3613f7bd492ba5U, 0x3cb582b43cc94bd7U, 0x3d6082173c6781aeU,
  0x3d6db33abcbce0d5U, 0x3e36d82d3d957b63U, 0xbe0dbc7ebe82e141U, 0xbeccd2243f083857U,
  0x3d8628893dab853aU, 0xbe0c3ecdbde96e3dU, 0xbf08c3e23e8ccb3eU, 0x3da537663b571564U,
  0x3e11a4e4bd1e64bbU, 0x3cf83cad3dd05fbdU, 0x3e81405c3bfe9feaU, 0xbd9e5ba6bded107aU,
  0xbda21ca7bdd54b3eU, 0x3e833f8cbd8d1e6bU, 0x3dbbf03bbd6d7d2eU, 0xbe8df68ebe5a9dceU,
  0x3d559d22bde56262U, 0x3e8ac88e3e6f7632U, 0x3e7212adbe65d487U, 0xbdeef5873e1248abU,
  0xbd925a503e39ec32U, 0x3ed24bffbee04ebcU, 0xbc8f1acebbdd9539U, 0x3c4b2a863dc575c1U,
  0xbf10882abe31215bU, 0x3f2c3edebe90a043U, 0x3e1993b4bf908b7bU, 0xbe261b6bbeb4c560U,
  0x3db5f188be34bd6dU, 0x3ca819b83d0e2a06U, 0xbcefa549bcd4d453U, 0xbdfa85f53e065828U,
  0x3d9ee489baca18e1U, 0xbcaaa06abe1573d9U, 0xbdeaa5de3e3b2b37U, 0x3dadda27bca912d2U,
  0x3d11b877be3606ccU, 0xbe289e6b3e07d676U, 0xbc9471143ec21973U, 0x3e665fee3e2c1f26U,
  0x3ec3da6abe4817c0U, 0xbd8de35cbf0a2d00U, 0xbe467d7dbcb91900U, 0x3ed77207be634b1dU,
  0xbe9386fdbfefc29bU, 0x3e11d26e3d411430U, 0x3fcaf2aa3f15702eU, 0xbdf2dbe03ec097b4U,
  0x3eae2be2bddbdb34U, 0xbf1917473f780e12U, 0x3f3a1ab93f805b33U, 0x3bd4f8c03e864150U,
  0x3ef62ad0bea2134bU, 0x3f1a828e3e44b35cU, 0xbf6b294ebf6b3f41U, 0xbd95057bbf373336U,
  0x3f2116a23f93a47aU, 0x3f4bda0a3e742846U, 0xbf4972a13fb890d6U, 0xbd0445d8bf1d627eU,
  0xbf2f70583fe41c9cU, 0x3f05a6d33c56102aU, 0x3eb8b7363f207bf0U, 0x3f2e04ffbf841644U,
  0xbf473580beef6639U, 0xbf1531bfbe94ec23U, 0x3ea61eeebe2d5805U, 0xbe712472be168458U,
  0xbdce859abee7dc0dU, 0xbc837306bf4759d9U, 0x3e95d374bdbabb31U, 0x3df14ab63ea98be7U,
  0xbf2a439ebf913f60U, 0xbc9cf51a3f286dd7U, 0x3e6d46fb3f7a8ddeU, 0xbec7c040be7ee643U,
  0x3e781d783f4c2dbdU, 0xbea2b12abe853205U, 0xbeaa86533efaeaa0U, 0xbf71ee313eed1178U,
  0x3f824bc23dc17870U, 0xbcf10136bea34f8cU, 0xbe595c3c3edad3b8U, 0xbeb00f10be94127aU,
  0x3e0bced8be6fe882U, 0x3f02b7ca3f1dbb91U, 0xbdbeb7a73e526e4bU, 0x3eb138b9be24864fU,
  0xbe892209bed84930U, 0x3e4306d3be9956d7U, 0xbe0f7d293cb0a706U, 0xbf304924bdc500c9U,
  0x3f3be5653e06a3e1U, 0x3ec8e776be2a79c5U, 0x3e6d3afcbf075629U, 0xbeede1d13ed6edf0U,
  0xbf4b610a3eee661aU, 0xbf0b4b1a3e82dd85U, 0xbe01f1b4bf5b9aafU, 0x3e5f00f3bd2df233U,
  0x3ca97ac83e148aacU, 0xbef6faf33da23711U, 0x3e47fd29beab55b0U, 0x3e915fe1be8de6fdU,
  0x3f1ccd70be407114U, 0x3e98095a3f0bd8c3U, 0xbf0d01cf3f28bd8eU, 0x3d615e363df295a1U,
  0xbedb55253f05a0c5U, 0xbe1da4debfba669bU, 0x3eb34db83f011454U, 0xbeb0530abf38ac3fU,
  0x3e93679bbfa9bf72U, 0x3e4f4f0cbe61acbdU, 0x3f707055bd1aacb3U, 0x3e2d236dbf8a6619U,
  0xbf6125abbea14135U, 0x3e4ea7f7bda2da0fU, 0xbe2f01103d87291fU, 0xbff8690ebed5a79bU,
  0x3ee4a0c1be8af685U, 0x3deeaf513f67bd3bU, 0x3fbc39323ed6074cU, 0xbec41d89bf633ee5U,
  0x3f8b40043e5c1afaU, 0xbe565e3dbea7956dU, 0x3ea846ffbfb52dfcU, 0xbccfd42fbe53878eU,
  0xc005973bbeaf1ca1U, 0x3e733861bead1a10U, 0x3f3b7b273e436b63U, 0xbd8efba33e29d7feU,
  0x3e8156d5bda27ce5U, 0x3f4b4cda3faa1416U, 0xbf0e00b7bf087a7eU, 0xbef881c3be08edc2U,
  0xbe6dda02be4a0b08U, 0xbef866903e8eaa26U, 0xbf068954bf7833c2U, 0xbdaa7ee4bf9f701eU,
  0xbf81db783ec7f230U, 0x3f931bfdbf946adeU, 0x3e12910fbe863446U, 0x3e0323b4bab796dcU,
  0x3bc6f0fbbcc4d3e1U, 0xbd87c8d6b981cc82U, 0x3d7510b83c2abe51U, 0xbc04baac3a6f4b4dU,
  0x3bc6ced63dcf6adbU, 0xbc2dd4a3bb3b5391U, 0xbee3728ebf0678c7U, 0xbecc1631bea341ceU,
  0xbea1d724bed09964U, 0xbec0ef23beafd051U, 0x3e44434f3f17932dU, 0xbe89d33cbf073943U,
  0x3e6d0d76bf3bea90U, 0x3eab7c333f785988U, 0xbfab1894bf996818U, 0xbf512fb9bf5aee2eU,
  0xbf9e0db1bf96f370U, 0xbf883fafbfb37bd2U, 0x3ddb657fbe1da632U, 0x3ee824473f8e0c64U,
  0xbe86f6433cff7c19U, 0xbf4c5def3f1270d4U, 0xbe2307adbf209c5fU, 0x3dbc6c6cbdc34b50U,
  0x3ea457cd3e784a47U, 0xbf4e39a63f34cc55U, 0xbe552ff9be8777faU, 0xbe95737abddbabbeU,
  0x3eaf6b84bef5b5e6U, 0x3e378e513f895efeU, 0x3d9316c3be6abf15U, 0x3e9183dabf0575d6U,
  0xbedd5971bfb6208dU, 0xbf6d76d83eeafcf3U, 0x3e9fae5bbe86d6e9U, 0xbec80e5a3f02f12aU,
  0x3e9828e6be93d7e8U, 0x3f331413befc8187U, 0x3e708950bd409c81U, 0x3e3951cbbe5b0717U,
  0x3e10a4db3e170146U, 0xbeefad23be9a08a7U, 0xbe2ece31bf1d3699U, 0xbf0386c6bed91a57U,
  0x3da33226be818cdfU, 0xbe88c79f3e8bb887U, 0xbe3e09733eb39facU, 0xbeab28b7be916b7eU,
  0x3f03279e3f062f8dU, 0x3ed0cce83d973c14U, 0xbe7e75a23e89c03cU, 0x3eeee8223d907879U,
  0xbe71e8efbf91c7ecU, 0xbf055446bf818faaU, 0x3f81ecab3e37a4cdU, 0xbe0518723f093e6bU,
  0xbf6626f6beb9e9b6U, 0x3d95428abec5d1e1U, 0x3f7d9d113e0a4ad3U, 0xbf98fca4bf4cb067U,
  0x3fdbb3283efa2362U, 0xbe6f7595bfde3709U, 0x3d8b17ba3e04c55dU, 0xbfd079eabfb25adcU,
  0xbe1cab48bedd4dd3U, 0x3fee71e83f8a40beU, 0x3e79c1cf3e81b18bU, 0xbeb77ce5bf14ff08U,
  0x3f16e5813f9726f7U, 0xbda21ef5bf81a8d0U, 0x3e54d4193f459d7bU, 0xbfc659d53d416d2fU,
  0x3cbd16bfbff7d2a3U, 0xbd8230e93e7b32c7U, 0xc0156181bf9d639bU, 0xbe23dcdebfadb2e9U,
  0x3f50b4d1be336fa7U, 0x3ed5880ac03844bbU, 0x402c4f9dbff845b8U, 0xbf18f4ee3f523769U,
  0x3fcf7df6409e1705U, 0x4079b9653f9d0458U, 0x3d2f33333c8e6000U, 0x387249ddbd06e444U,
  0xbd046953bd0e5a26U, 0x3d0eb2b43c5cb7d0U, 0x3d5de7963d038e89U, 0x3c072384baca9775U,
  0x3cf3c716bdfa7287U, 0xbca697423ce67a62U, 0x3e1399243cdccfb7U, 0xbde9096f3db1ca87U,
  0x3ca1b8db3e60c65cU, 0x3d99d935bd4e1e89U, 0x3ae3fd8c3ceea24aU, 0x3d8e0c7b3e10c945U,
  0x3c85a0bc3d0b9747U, 0x3e3afdeb3d9217cbU, 0x3df37c873c2679d8U, 0x3d38cd613e257124U,
  0x3c4befcf3e7d35e7U, 0xbbbfb0a0bd380101U, 0x3d04c966bbcfc560U, 0xbbdf23debbeb7553U,
  0xbdb938cc3daff91fU, 0x3d8b4c3f3c666467U, 0x3d4d1cc93b919e13U, 0xbc5614233d0f8a35U,
  0xbc371d8239d5c9f5U, 0xbbb0c7d83b677c19U, 0xbef4d1663ef95f1dU, 0xbe628419bd3e9526U,
  0x3f2b283cbe1e3da9U, 0xbe7f27cc3e3ec0e4U, 0xbc7d7585bd1953f3U, 0xbda6dba6bca1a3d3U,
  0x3d25c85c3c4e6742U, 0xbd71c78b3d440219U, 0xbe1db981bda1c8eaU, 0xbe16f0cb3d1f17e7U,
  0x3cc45ecebce945b9U, 0x3e55ab52be4cc009U, 0xbd7c1f96be09e6b2U, 0x3d860926bd47feceU,
  0xbcc48f8dbc928ad7U, 0xbe7403f7be0daf2bU, 0x3ec79006bcabb233U, 0xbdb16458be458a78U,
  0x3d48fdaebd8f357aU, 0xbdd208263dc5ffacU, 0x3d81afcf3c2d9fa8U, 0xbb73f3703dbacbcfU,
  0x3d9d27f43d86ce08U, 0xbdd4f7d03d628fe8U, 0xbd5a4153bdf86fbaU, 0x3dbf38093d8b838cU,
  0xbd437da8bd8d0d53U, 0xbde0f4ccbd6e7b4eU, 0x3e0a56d83de4a523U, 0x3ddf13073d5e7d03U,
  0xbbf823673c5a08bbU, 0x3d5893213dc17401U, 0xbd91778fbe0d3984U, 0x3d835352bc9d2987U,
  0xbd3c59c53cad8bf3U, 0xbb51e6eabda2303cU, 0xbd5285f9bd25aee8U, 0xbda38ce0bcaeaf6cU,
  0xbd368324ba6eb504U, 0xbd2a490ebd81d524U, 0x3e76ae8a3ea6305aU, 0x3eb33945be25dfedU,
  0xbd94d74dbe0c4c7cU, 0x3dd96cc4be05d863U, 0x3d1159f8bc9a68c6U, 0x3d1777fbbe414e20U,
  0x3db0a3f7bc4a7575U, 0xbbf6bfcd3d8d79c7U, 0x3e1cc5f23d657cadU, 0x3e0294f23e13bfa8U,
  0x3e10faf43e198a19U, 0x3d9d4a623e03633aU, 0x3db795e33dd73baeU, 0x3cedb35f3db4774dU,
  0x3e03a1093dce23e2U, 0x3dbf1fca3d679fe3U, 0xbca01dbfbc5e1323U, 0xbd29516bbdde343bU,
  0xbddbe789bd85e8fcU, 0xbd57d028bdd9e8f3U, 0xbdb6ccb5bdfc1310U, 0xbdb24514bdacff30U,
  0xbd8ede14bdf2ef28U, 0xbd3ec86dbd052865U, 0xbd41bd91bcbc3fdaU, 0xbe0a4f7bbd3b7ed5U,
  0xbe00bc5fbe3f8c46U, 0xbde36873bde4e98fU, 0x3dccf4f53dd8f6e6U, 0x3dc9b40f3dc0fccbU,
  0x3d3a71d73da3f931U, 0x3db04c853dec4d7fU, 0x3e88e04cbe701ccdU, 0x3e1f7093bdea6d2fU,
  0xbe90acf7bd361019U, 0xbd0dfe1bbdf6b32bU, 0x3eb33424bc56ccaaU, 0x3e6d817bbe37c21eU,
  0x3e0fafd1be9d806aU, 0xbe4b884fbe27b8dbU, 0xbe46aca43e0c7ffeU, 0x3e180044bd7e6808U,
  0xbd9972833dedccf1U, 0x3dc649853de78ac9U, 0x3d82c6483d74b216U, 0xbdb1d5a63d7c7bc6U,
  0xbbf78757bb8a0122U, 0xbd9ffa50bca25199U, 0x3dbaf1733cd775ccU, 0x3e208871bd1c69bdU,
  0x3d00bb7f3c51241eU, 0x3d9fcbf93dbc3826U, 0xbe8f14b7bc683e08U, 0x3dd213ea3f0624e1U,
  0x3e2e2efcbe5dfb2dU, 0x3e9695c93d6eb8b8U, 0xbc203d17bc3ed9c6U, 0xbc8c6f3fbcba506aU,
  0xbc2f179cbc7d20abU, 0xbc62b9cbbc2150ecU, 0x3d4f264c3d8414c9U, 0x3d7117183dcab883U,
  0x3e02bef13d65cbcbU, 0x3d7ff2a13d91be02U, 0xbd50e8dcbdb0b6b4U, 0xbe04e9c4bd891415U,
  0xbd8c59b2bdf26113U, 0xbd84991abe079aa5U, 0xbdabb6b7bd912498U, 0xbde7684dbe11fb58U,
  0xbdb309edbe07cd17U, 0xbda7789fbd82d9b9U, 0xbd4c897abd8e76d8U, 0xbd84e809bd2f8f7bU,
  0xbd43aaa5bd3d9719U, 0xbd82ef0dbd92d9eaU, 0x3d45124c3d81754dU, 0x3d29fdd53d7c0112U,
  0x3d4012e33d0e562bU, 0x3cea61603d42b331U, 0xbe1a8e40bda3513aU, 0x3d0c57c5bde271bdU,
  0xbb0bfec0bddd1f05U, 0x3eaa8d4fbe2951bfU, 0xbe2c2678bd78c23fU, 0x3eac55edbe143791U,
  0x3e2345d03e7f100fU, 0x3e5e441ebd393070U, 0x3e0b0fe23d03f81cU, 0x3ecd866c3de86907U,
  0xbde5b1cfbe6adc69U, 0xbc52c155bd27768eU, 0x3e74354fbef9d15aU, 0x3f1c2c47bf022ef8U,
  0xbe7d8507befd584dU, 0x3f86ba603f3d84e3U, 0xbef540273e76e5f6U, 0x3ebc09ddbe1372aaU,
  0x3eb1eb79bd96c841U, 0x3f354a143f1e10bcU, 0xbe21a4eebd7d3dc6U, 0x3ed824ca3f0a9bf5U,
  0x3eaa69693eedcffbU, 0x3f0a79d1beb9bcfbU, 0xbdaf3d843f1fe805U, 0x3f129323be8fe4fcU,
  0x3d8e6f7ebf15ead8U, 0xbf3d93953fc64af9U, 0x3ee476c7be75b6ceU, 0x3e5ac673bd4061b2U,
  0xbe8f6ca03ba7fa40U, 0x3d6cf7e63e65859bU, 0x4010773b4025d696U, 0x3f5f599d3fb037a3U,
  0x4057d54d3ede8973U, 0x3f9fa2a0c025f646U, 0x3e2e3f33c08748dcU, 0x3ea38dd2becf9fabU,
  0x3fd46de43f72bfdcU, 0xbd2bc4d7beaef27cU, 0x3e02278cbeef2f58U, 0x3d27ba56be711455U,
  0xbbcd55093df0739fU, 0xbf21a6d23e250ac4U, 0xc00ad8be3eb62af1U, 0x3e40b3253cf75b9eU,
  0xbdbbaa83be046468U, 0xbebcd2d4be7d4b66U, 0xbe5fcb95be56e338U, 0xbe18ab71bd3495e3U,
  0xbe6a35923f00c946U, 0xbd67b17a3dd93182U, 0xbd3b9c56bf187403U, 0x3e81be2ebe789d2bU,
  0xbe9f77103f1bdc7fU, 0x3c91f0193d081779U, 0x3c15be3cbcd9430dU, 0xbe3d16b73e86c151U,
  0x3e3c1606bdefa124U, 0xbf7aa2e2be9861e5U, 0x3ed5c7c1be744e8dU, 0x3d021c823d844d8cU,
  0x3e1722c538f19529U, 0xbea62b05bd577d36U, 0xbe1b104ebd8d8c3cU, 0xbd9f0720bedbfb03U,
  0xbed4445bbdb216ecU, 0xbef49c2bbe7b105bU, 0xbf266e743e2f38faU, 0xbf10ef3e3ee863b6U,
  0x3f80a411bedef708U, 0xbf9e250ebe94fe63U, 0x3f11bf723fc410a9U, 0x3e2a537ec08bea81U,
  0xc091b41d3f1e5320U, 0x3ebcc6bebfd656a6U, 0x3d1f8d003e8e9b49U, 0x3ea001dc3daa3ccfU,
  0x3f248c1a3e01b817U, 0x3f65bd14bf9e546bU, 0x3e0c4775bed02488U, 0xbbbb7b6dbee29061U,
  0x3cec09133dbe63edU, 0x3cf01b9bbd0baf31U, 0xbd7251c33cd5bbe9U, 0xbd1c8dcabf1615e0U,
  0xbf4249af3ee01b7cU, 0xbe76cbadbfa423aeU, 0xbe9eef55be846d3bU, 0x3f236448bfbd9702U,
  0x3cc45e513e4c268dU, 0x3e069dff3d106074U, 0x3ca9ad8fbd53f796U, 0xbcbd6c6dbe6fe597U,
  0x3cd9e478bd3d347bU, 0x3b8bcd323f0b39a9U, 0xbe8cc7803e0a1368U, 0xbe7cbc5cbdf2b918U,
  0x3ee72eddbe8c15f7U, 0xbeb6754abec6928cU, 0xbdf92bdf3ea34193U, 0xc005528abdcbcb11U,
  0x3e6c8d4cbf02760aU, 0x3e45f4ac3f0d84fdU, 0x3c8f2cfd3eb11d49U, 0xbdb3f8573dcf1b78U,
  0xbed7c195be9403c4U, 0xbe8fee0abf85c29dU, 0x3db3db94bec9299dU, 0x3bc5bf33be2c278aU,
  0x3e1198383e7d0532U, 0x3e74d1573dbe3a11U, 0x3d4dbb08bda38e24U, 0xbf11354a3b985d41U,
  0x3e0119e9bd42832eU, 0x3e57e9173ef5a2f6U, 0x3d6430d13d0490e7U, 0xbd51ff703e0bbf5aU,
  0xbd6b9fef3ca78c21U, 0x3c799a9dbd2a58e1U, 0xbc30bee1bd936870U, 0x3d8371903b27b8b5U,
  0xbe74fac6bc577684U, 0x3ee239da3d9118b3U, 0x3cb1e6133e016701U, 0x3caad849bf02c517U,
  0x3d8010fa3d9302c4U, 0x3e437e0f3ec2bd85U, 0x3ee7c94bbdf607cdU, 0xbe41f2a8bddb8b60U,
  0xbf2faf68bf41676bU, 0x3f84976f3e081f7fU, 0x3b98a0debeb10491U, 0x3c764f8bbf852095U,
  0x3f2cbf663ed4ec97U, 0xbe56ace53eb247a9U, 0xbe126bd1bcb625bdU, 0xbd2e330abe4b7020U,
  0xbe29f9fabdbc5aedU, 0xbe84a4c73ca7a9c4U, 0x3dee05f43e850b10U, 0xbd51027c3e50df53U,
  0xbdbe4d2e3e2af3a0U, 0xbdd6ed633eb1eadbU, 0xb87888913d4813f1U, 0xbd845424bd5c3bf8U,
  0x3d0514c7bd85a19dU, 0x3d871672be06b4eeU, 0x3e1f40053f9f5427U, 0x3df36b2f3da53793U,
  0x3d5e1834bbfa422fU, 0xbea00618bc022739U, 0xbc07f7fc3db6d413U, 0xbe88efb3bd64a5f2U,
  0x3d2c94613f53c910U, 0x3e5d6b0dbe2c0da8U, 0x3edf30743edb4167U, 0x3d3e47a73f117674U,
  0x406e7c4d406e96c0U, 0x4022c5b740311601U, 0x40554dc33fefd859U, 0x3fea34583fc58dffU,
  0xbf55afcb3fdaf9dcU, 0xbf6b6fb4bedc7302U, 0xbe8e28a9bef55007U, 0xbef05295bf0e2c70U,
  0xbe7b00ebbf09618eU, 0x3d45fa1b3bf64d5cU, 0x3cb5c5c13d561262U, 0x3d8aff8a3d3cd123U,
  0x3d8d52d33c4b3091U, 0xbf325e033d815fcfU, 0xbf4b998dbf65d8f9U, 0xbf473f22bf721908U,
  0xbf0671eabf441137U, 0xbf11e205bf0ff5ebU, 0x3f7b8f5e3fb497ceU, 0x3f54e7603fa62b6aU,
  0x3f9465c13f86ff0eU, 0x3e96e0a53dd4559bU, 0xbe4d99bebef742b9U, 0xbe088ffdbdb7c77aU,
  0xbe8451773e0ec72aU, 0xbe01de15bd5c3279U, 0x3c119b3ebdd43680U, 0xbbd0b130be113720U,
  0xbeb24fa7be69b2d1U, 0xbe8a3618be62b36eU, 0xbcb9d4f23ea2cc67U, 0x3e32401e3d8be9daU,
  0x3ce0ba2dbe30b08eU, 0x3f1f2228bea68154U, 0xbee2afe5be287aabU, 0x3f4312dcbe3c53deU,
  0x3e22c8463c98a073U, 0xbe1aad9cbe1c6c09U, 0x3e7b416b3cfafccaU, 0x3d12d76f3e828bacU,
  0xbe08832d3bd83ebaU, 0x3f1a9c32bdf51564U, 0xbc3bf69fbe6b8f5fU, 0xbd87905b3f1f4e4eU,
  0x3eeb5f42bec57627U, 0xbec7a2a3be65a3b1U, 0xbe460ac5be9970f9U, 0xbe0cb1383e3bc260U,
  0xbf747a7cbe8fe252U, 0x3d2c54e2bedd42ddU, 0x3eb603283eb66294U, 0xbaff1d583e8230c2U,
  0x3e16953f3f6517f7U, 0x3ef77b343f1e611eU, 0xbf1823fe3ec1c336U, 0x3f5de3c0bf20885eU,
  0xbe7d17b1bf4f16d6U, 0x3d1a21c03f480a28U, 0xbeb450c3bd68b488U, 0x3fb8521ebdd815afU,
  0xbe847453be9e7a4eU, 0x3fc55d90bf06cb6dU, 0x3f737ada3ec34e54U, 0xbefdca3e3ecbd87eU,
  0x3efe3fe63ef7cc18U, 0x3f8f9768be08b5feU, 0xbf3751acbf8cb939U, 0xbf5e975d3f68c746U,
  0x3f8491723fa2f031U, 0xbee6f04c3e929ba0U, 0x3e4ccbbe3e9d9e46U, 0x3e6e9e88be0ed0e8U,
  0xbe1618fabf5bb5b7U, 0xbf1bfdd9be112e8cU, 0xbda9710fbdd16f16U, 0xbec88a663e245d23U,
  0x3f426376bf58288fU, 0xbe9e88293f1c7392U, 0x3f0661733e17bf40U, 0xbf4516933ee1c6d0U,
  0x3e48ab61bdb70a1bU, 0xbe1a55953f1e57bcU, 0xbec2f197be0bdb07U, 0xbde678e7bcf04325U,
  0xbec5e8c1beb1b0feU, 0x3e2ce24abed05de2U, 0x3eb29f3e3ca01a8bU, 0x3e90f04b3eaff4a6U,
  0x3f2634ecbef28f2bU, 0x3e1baa8a3f08c5a4U, 0x3ec3f139bf079f3eU, 0xbeea2dc6be32cd9dU,
  0xbf0e802f3e1f9668U, 0xbed636703df0d664U, 0x3dd1aeb6bfd004fbU, 0xbf97bafd3fa5962cU,
  0x3ed11636bf82fdc3U, 0x3f7ddba33fe32db2U, 0x3daab751bf837917U, 0x3fe237163f9d29acU,
  0x3e8fec9b3f90c8a0U, 0x3f8888c4be20ef2aU, 0xbf30e061bfb07bd8U, 0x3befd05f3bf1e2c7U,
  0x3fd0bb2e3da12521U, 0x3f0d2dd43ea3ee7fU, 0xbff9a75fbf953893U, 0xbd1216443eb4788bU,
  0x3e4822d3bfad03beU, 0xbd54055940174a7aU, 0x3fad213e3f441613U, 0x3f91cbf2bf55b23fU,
  0xbf0866c9bfa9f901U, 0xbf0593893f078362U, 0x3f77adf33f319adfU, 0x3faa8676bff3a194U,
  0xbf9afc7e3f98ddf4U, 0x3ed4f140bfa709c1U, 0xbec2e116bf2ac8bfU, 0x3fd6447ebda7a102U,
  0x3f57ec603dfc4cb8U, 0x3e61eb63bf0fb2a2U, 0xbf1007a43ec5d8f0U, 0xbe7140284048fe91U,
  0x3f196f3fbe7a89c5U, 0xbffc0c673ecb75d5U, 0xbf2af64540323b78U, 0xbf6c3e91be902c4aU,
  0xbfab4f9c3ffa456dU, 0xbf0c61e9bd933467U, 0x400575543eec0facU, 0xbdf4da4fbf849c28U,
  0xbe1b1af540090da0U, 0x3d96431b4001f992U, 0x3fa34093bc95a6fbU, 0x3dd4547b400abc20U,
  0x3e87c632bf277952U, 0x402c5544bf38c2c9U, 0xbde6dff63f9d2b33U, 0xc03da0fd3ec96157U,
  0x3f80e125bfa73ba2U, 0xbf0c8ef53f6c8039U, 0xbfa92f8e3f608159U, 0x3fc6f8b2c04768efU,
  0xbc8b62893de30bc2U, 0x400430e43dfefbe9U, 0x3eb520613fa2eb84U, 0x3f0a758f3ea38f61U,
  0xbfd78d263f92b2b7U, 0x3e3960c83ffb07beU, 0xbee39d1d3eaae136U, 0x3d8ac9553e6568deU,
  0x3e6a87423fd603d6U, 0x400840313f86da52U, 0xbf6a25323f1f9754U, 0x3f992509bdb42fb0U,
  0xbf4a701a3edde8e4U, 0xbc70b437bfca9dccU, 0x3f7302203e924b84U, 0xbe865ba83f848f53U,
  0xbeb68aa7bce51f5dU, 0x3f1478c8be090124U, 0x3f38b6cd3f262b57U, 0xbf034977bd6e2da3U,
  0x3e3e87123f779eceU, 0xbfa451a93dbda76fU, 0xbe9f423bbc1b4ba5U, 0x3fa3b7913fad0151U,
  0xbf8190b53fd90b2cU, 0xbe7cabc4bf262cbaU, 0xbee4fbd63f2837d0U, 0xbe934b903f67cb5eU,
  0x3e5109c63eff662dU, 0x3f157c0bbf1c4e01U, 0xbd8c444cbe193d4eU, 0xbe20cc59bed4833fU,
  0x3fc6341f3e28c3b3U, 0x3d777fef3ed0dd70U, 0xbe8266ac3e011887U, 0xbf80b5963e28512cU,
  0xbbc34e263ecb7be6U, 0xbf02ae813ec704a2U, 0xbecf2f04bdf22b48U, 0x383887023ecdb2ebU,
  0x3f721f4cbf0f7d2bU, 0x3ea985b73ddcca43U, 0x3e8376cd3ea12b36U, 0xbec97c19bf05647fU,
  0xbeb13b333e400610U, 0x3e4e837cbf523bc8U, 0x3c1ab2643ee27206U, 0x3f832a513c2c4b65U,
  0x3d884dfcbd6b2d77U, 0xbe67f6d9bece6a77U, 0x3d4388d0be37ee5eU, 0x3d926116bbd0e4b0U,
  0xbc4ba70fbe52ade9U, 0xbea11f2f3d78ef66U, 0xbee0736dbe5e4591U, 0x3d80bac33d1c9eddU,
  0x3d1e23c33a8e99beU, 0xbcb4d9de3b9a1c15U, 0x3d0d308cbd2d32ecU, 0xbe8795873f944067U,
  0x3f4d52753e1f9574U, 0xbe98cb30bddcf206U, 0xbda2c911be4158f4U, 0xbe4bb2243f79ef76U,
  0xbefc76edbbafd660U, 0x3f07a3f4beb1b383U, 0x3dc6cc2d3e79256eU, 0xbf0465463f3e8ba9U,
  0xbebe45403e19a182U, 0x3e09922dbc16156fU, 0x3fa77be1bdea7532U, 0x3deaed3abf2590deU,
  0x3f3ab287bd5b01c3U, 0x3f2d6a423cd1241eU, 0xbe2040913ed4bb39U, 0xbcd3d31f3f142d31U,
  0xbe9a126bbf2a7f59U, 0x3f49fc1d3f9405a4U, 0x3e9855593dfe68afU, 0xbe568c513e8e7957U,
  0x3e30a3263ed1838eU, 0x3e7a9385bee5a350U, 0x3d1e2ccabfa070cfU, 0x3e3663ae3b301402U,
  0xbf3ee1dcbe59afe1U, 0xbe87eab9bef5209cU, 0x3e93d8013e5a4d50U, 0x3f453e70becd0309U,
  0x3f2464a93e6b1892U, 0x3f144212c00f3689U, 0xc068b9203f8c1effU, 0x409e10cebf9f5a61U,
  0x3ffdcc34bf85c6caU, 0xbedca217bf23adebU, 0xbde6ebab3d71afa9U, 0xbe4087cf3d3b2686U,
  0xbee40e5b3e5f8cd9U, 0xbb2b3fb13ee1e1c9U, 0xbd0cff82be31e80fU, 0x3f230b85be0d9085U,
  0xbeab6163bdc12e88U, 0xbe24be9bbebd3e13U, 0xbe2c23ad3e455348U, 0xbea5ac76bd9fec01U,
  0x3e8cbff43d57e776U, 0x3dd353213e744d57U, 0x3c1ab9573be08885U, 0x3c3146513bd4ab2dU,
  0x3bb29a5e3c1385bdU, 0x3bb14b8c3bb30606U, 0xbed22f833daf5804U, 0x3e66bc2c3d12c8d2U,
  0x3e2d2629bdb45c43U, 0x3e17cd17bca1222eU, 0x3e5b66bf3e53a7f3U, 0x3e29ccd03df4a936U,
  0x3e0146c73e68ffa1U, 0x3e0ee1853e0ef478U, 0xbd2d5045bceb776cU, 0x3ea2eb5b3e24d193U,
  0x3cbe7aae3ca005cfU, 0x3e9524e83d2174d9U, 0xbd149e4a3e3a66a6U, 0xbe084642bee2a326U,
  0x3d49d32eba505851U, 0x3e5dee76bdcc6cf0U, 0x3ec43338bf09d033U, 0xbc5e166dbe00224cU,
  0xbea6f1a7bdadb934U, 0x3e0bce413d666a54U, 0xbe259f67be9d04c8U, 0xbe60b6bebe5548c1U,
  0xbe40ef37bb6710a1U, 0x3e77f4ba3e6a30e5U, 0x3d625fbf3f1e0f4fU, 0x3ea96c213ecc069fU,
  0xbdcebf6bbf1a02f3U, 0x3e54fc8fbe9e01a4U, 0x3d487490bd65c121U, 0xbe9a89c93d0418f5U,
  0x3d94e40d3e0f8cffU, 0xbe1cd1433cbc4365U, 0xbd9fa022be5a7625U, 0xbd937b9cbda534a4U,
  0xbc0c04edbd81d738U, 0xbe78f84cbe01423eU, 0xbcea0a02bcee5ba5U, 0xbdd77702bd81ec22U,
  0x3e86ea49be4bcde8U, 0xbd33b60e3db2f6f9U, 0x3e927a753ee14374U, 0xbddcd5823d9d2762U,
  0xb9b13538bc02cef1U, 0xbd1cd7ebbc7dbd3cU, 0x3e723bbebe429ab1U, 0x3d619dbebe9297b2U,
  0x3eacf0c0be151d7dU, 0x3e12d0b4bdca2886U, 0x3d1d26b7bb3133e4U, 0xbc3637843c368a07U,
  0x3af8d792bc3b87a6U, 0xbd3797adbc545266U, 0xbc233645bca9ff73U, 0xbaa548dbbc4a8019U,
  0xbbc2a9ecbb9043bcU, 0x3b615d5dbc2fb7c5U, 0x3d7bceec3e250ecdU, 0x3db87a34be150ec6U,
  0xbed235f7be0eed12U, 0x3c9b62ba3f276095U, 0x3e31095bbe917d94U, 0x3e0ca6c0bf0b4680U,
  0x3e7b1b153d914cf9U, 0xbe9789e43e88e886U, 0xbdeb70be3c78e740U, 0xbe091db03eb72399U,
  0x3db27c33bdbe9608U, 0x3edf7ba9bf2942c0U, 0xbe37afa53c9217e4U, 0x3da544df3f1107b8U,
  0xbccce7643e93cafbU, 0xbe6e30a3be1365dbU, 0x3dd8af05bd898c74U, 0xbe8855fd3cb74574U,
  0x3ea9241e3c68f867U, 0xbc6308d8bed8a090U, 0xbbe10eac3e012761U, 0x3eae0b7a3eb7971fU,
  0x3a4e1845be3d4ec6U, 0xbe8eb2103dc4b53fU, 0xbf35eb763d49b01cU, 0xbdcc01c43f8cdf62U,
  0xbec06e283e87c213U, 0x3f4680babe917c2eU, 0xbf4fe27fbe073c38U, 0x3f93f93d3f2b77a2U,
  0x3ec236c13f9c9583U, 0x3f16b7163fa92fa4U, 0xbe3f385bbe86c1f7U, 0x3e857d053f900ff6U,
  0x3fae53a13e962fecU, 0x3ed21d703f24a52fU, 0x3d5d3d3dbe424cbaU, 0xbe2423a9bbc73073U,
  0xbe0bb2be3c1a2b78U, 0xbdf78fbb3e3248b8U, 0x3d64e303be18a5f8U, 0xbd0eeea7bd987e96U,
  0x3e4563d0bd206752U, 0xbeb0571e3e81747bU, 0x3de715f03d44e524U, 0x3c645a6fbd981aa3U,
  0x3e236ece3e68e0daU, 0xbe5bb5213ab9a66fU, 0x3d9175f8bdf7bfaaU, 0xbe4026933f379affU,
  0xbc570232be989639U, 0xbe61ccfa3d9a0331U, 0x3ea21051bd3935cbU, 0x3d925de43e5ff6c6U,
  0x3efabfc33d941878U, 0x3dd95016beb84d52U, 0x3def85703d962f11U, 0xbd08423e3e6b7c46U,
  0xbd65f9b93e5b5b39U, 0xbd6e24633dbe1141U, 0x3ddc90353d29d0afU, 0x3dc8012a3e1da748U,
  0x3e834b19be6ef470U, 0x3e4b81ddbd9f795dU, 0x3d67488c3df6aca3U, 0x3d12f4923c817b75U,
  0xbdc6bd03be1387c2U, 0x3e585b55be2b67d3U, 0x3c634e9abda282b3U, 0x3b7aacbb3d212824U,
  0xbd963bf5bd493965U, 0xbd58445bbde9ffbcU, 0x3ecc5581bea2965fU, 0x3e1552cbbe42c8f2U,
  0xbd0d93083e0eabf2U, 0x3d4f2cfb3d8b1e51U, 0xbe20262dbdc923a0U, 0xbeb1f914be23450bU,
  0xbca565973e84078eU, 0x3ed7dbf33e272d62U, 0xbd47a8283d99136bU, 0x3d677e2c3ecf84b6U,
  0xbdf7bf7cbe747f43U, 0x3ed282cf3d908c1aU, 0x3cc5468c3dcf8a93U, 0x3d0375d03dd14afdU,
  0xbe544e2cbd860086U, 0xbc8268ba3d42a709U, 0xbac9549a3dda2568U, 0x3cd20475bb8e0667U,
  0xbd2c386b3dfbd8b0U, 0x3de51fba3d3e95c4U, 0xbcb004e2bd521ca7U, 0x3cc0ed073d9bc62cU,
  0x3d1f4181bd3e52e9U, 0x3cb30a7abd1a4250U, 0x3e73060ebdbab0e9U, 0xbdf78ad63e8cae74U,
  0x3e0cf43b3e1c9f4fU, 0x3e67a0243e33c02aU, 0xbe11ace6bed1ccf7U, 0xbe5cdfa7bbe93b45U,
  0x3ddd6328bea08043U, 0xbdfa081d3e80cf6aU, 0xbdfe94233cfff1acU, 0x3d29bc1ebda91541U,
  0xbeb03bc6be30bd0aU, 0x3e67fbe03b91670aU, 0x3e97646e3e9d334bU, 0xbd39382fbe20ddeaU,
  0xbeba6f623c52b2b6U, 0x3ce237d0be2afdeaU, 0x3e56b211be9fb11fU, 0xbc23f08e3d721f6fU,
  0x3d027e2fbd129481U, 0xbe4448873df95afcU, 0x3e2da2143d9eddc9U, 0x3e721ec4be2933d8U,
  0x3e8e2cde3ed1d613U, 0x3e9b6d0a3dfaef32U, 0x3de267553f0015caU, 0xbdc3914dbd327687U,
  0xbe6ad397beb676d3U, 0xbe213fdd3e2fdc30U, 0xbedf225ebd2e9668U, 0xbce3f0e03e1cb5ceU,
  0x3e93f930becbab8bU, 0xbea67e90bea82f02U, 0x3e3fb7b83dd0ade5U, 0xbe0b6b23bec87728U,
  0xbe330b0d3f3d4012U, 0x3d01b2ebbdb5fbf1U, 0xbe39eb78bd8a7d89U, 0x3cb9d71b3f128a2dU,
  0x3c956ce2bd40a24fU, 0xbd9d45603e3673e4U, 0x3e24cfe63d52dd79U, 0xbccc792dbd61f6adU,
  0xbd965c5cbcd0e56dU, 0xbe766ae4bdad5faaU, 0xbdfbdd0dbdbb127dU, 0x3d365a50bec7fb36U,
  0xbe23d0603e3db1adU, 0xbe7352b23ce234fbU, 0x3e9be829bdecb35eU, 0xbe0a86b03f00dcd2U,
  0x3e2500983ef206e5U, 0x3eba3c94beea87aeU, 0xbe3be3b43edf7384U, 0xbda638fc3e5ac329U,
  0x3dfaf061be9926adU, 0x3f6cd90bbeac1e75U, 0xbd2acbb83e16b50bU, 0xbeb1c6353cbca223U,
  0x3e834175bd3fe155U, 0x3f108c633f14610bU, 0x3c093f74be02de38U, 0xbd6201b6bf0030ceU,
  0xbeda138fbd42d62aU, 0xbd9fa477be5f940eU, 0x3e078221bef9f849U, 0x3df1d2a3be2d13f2U,
  0xbd4966583e482d73U, 0xba9bc1eabdc6b3b0U, 0x3de379883e27de89U, 0x3e1a0acbbedbce8fU,
  0xbd658d29bda5cd14U, 0x3e9b37993c6a65e1U, 0x3c972c70be08e3aaU, 0x3e70e245be72b3a8U,
  0x3e213ef53bd7ee32U, 0xbf2bf34fbdf3f074U, 0x3ecea0fdbe3627a2U, 0x3e30e8523e1a4107U,
  0xbe7d0adfbf06780dU, 0xbf7627d0bedc9c9bU, 0x3dd6143c3e9b4014U, 0xbd1099a53df62806U,
  0xbf07c36d3e6e5eacU, 0xbed8d5c63e73acefU, 0xbd0079e3bdfbe63eU, 0xbdb89f38bf012136U,
  0x3e250e77bd5dac3aU, 0x3c9ef716be0ebca0U, 0xbf1d0cdebe0a0d01U, 0xbe41bcb6bcb33c73U,
  0xbba3bdd83dbbec59U, 0x3d554c923d445bb2U, 0x3db500c2bb246a76U, 0x3df54ea23b94c297U,
  0xbcc2bc893e106353U, 0x3eb6fd66bbb673feU, 0x3e5c34e6beb1e978U, 0xbe8e4c9fbe7d47acU,
  0x3ca07b9cbe9d96b8U, 0x3bca5fecbdb6359fU, 0x3dbc77c43e7c175eU, 0x3de3ddcdbdc9f6deU,
  0x3f02a5d23cdc3c08U, 0xbe99aad1bec1f3eeU, 0xbd1efd093e18d7d3U, 0x3e8399c5bd072a2dU,
  0x3ecb64ba3dd6f73dU, 0xbe94fcf23e1b1964U, 0xbe1e4964bda1b467U, 0xbd1a030c3e481583U,
  0xbd55eabcbddbe493U, 0x3d28b487bcd9ea77U, 0xbd0c125f3dea1646U, 0xbd8e4a47bd921113U,
  0x3d6a4d103c98e8c3U, 0x3e3a9c063dac1e34U, 0xbd9efd7b3d131e9eU, 0xbc0fbd76bca93eaaU,
  0x3d027401bb53e044U, 0xbd7ab2ff3da59c98U, 0x3e056c113f086fecU, 0x3e129323be8a7685U,
  0x3e1f76f9be4f1902U, 0xbe34f440be8e30ddU, 0x3957b4023e95b29fU, 0x3e2f6baabe709181U,
  0xbda933df3d512fbcU, 0x3deec2e83e22fbb8U, 0x3d63ca50bd21b419U, 0x3ec6057f3e46a2eaU,
  0xbdb6510e3ac072f4U, 0xbe9451bc3debad95U, 0x3ddc59c8bdedbda0U, 0x3e0dae993dad3e61U,
  0x3e40d524bd1aeb9cU, 0xbe2ca0653e8ccc35U, 0x3d46b4a83e19b5ffU, 0xbd3664fa3e0dc20dU,
  0x3da82810bdffce4cU, 0xbe7fe6513df28bf7U, 0xbdb4713cbc67e29bU, 0xbcfac7fe3e75d143U,
  0x3bf6914a3d109e63U, 0x3ed53dc3bddd2817U, 0xbc6b98623dab888aU, 0x3c8bd96d3dc89eafU,
  0x3ea4aff83e5b3469U, 0xbd1f4847be540b7bU, 0x3dcc58c53f312d9cU, 0xbe22db3ebe4b8ac3U,
  0xbb921a21bb0707b6U, 0x3cf4b9d73eecc137U, 0xbb164f99bdfc9db2U, 0xbe3aba91be0a283dU,
  0xbea18be5bc35b150U, 0x3dfa6eaa3d237b53U, 0xbcaf8a25bcb1ab94U, 0xbd1cf0bbbd139aefU,
  0xbc6c5a80bc19fd62U, 0x3c1aeadb3cef3fe8U, 0xbaf2a8d5bc434108U, 0xbb2bfaa6bcae7d27U,
  0x3b2f919abcd29f81U, 0x3cf375da3d0f431cU, 0x3c7389a33aed4a6aU, 0xbae6c67dbc7944eaU,
  0x3c9f7ea1bc0d1bdeU, 0xbbb19a2b3c98ac3cU, 0xbd0af914bcfa1074U, 0xba92e4273ca80b39U,
  0xbb50c6ffbd1504dcU, 0xbc764200bcef0818U, 0x3dace9963c5d04aeU, 0xbe27e69737924a79U,
  0xbba72cc8bda47844U, 0x3d82a55cbd05a4b0U, 0xbbdd790e3d1b827bU, 0xbde1afb3be0782fcU,
  0xbd1457a03dfbb2a7U, 0xbd34f7b73e4194d0U, 0x3e88e23ebdd391d7U, 0x3df8a704be00fb69U,
  0xbd4bb8183c103ed7U, 0x3e35a698beb92062U, 0x3cbbf81fbe11c7edU, 0x3e1e1f4e3d41e12dU,
  0x3e1efd613e056d56U, 0xbe4f8a7e3e52a1a4U, 0x3e41a8f13def7880U, 0x3e319f38bdab410fU,
  0xbd6f6fcf3e6ece29U, 0xbdee83993cdc42acU, 0x3e9d1e4bbea714cfU, 0x3e3ce863be92b888U,
  0xbdaaa4a43d2f3f17U, 0x3f022d123b1f9f2fU, 0x3f0f88b4bdcae156U, 0x3ebdd99c3ebb2de8U,
  0x3e3e03de3e8b6131U, 0xbe86b3acbf0384caU, 0xbe12823abe18beb3U, 0x3ed8a7ea3b00bcc5U,
  0x3db35ea13e0f09a2U, 0xbde71990be27cdc2U, 0x3e7c68563ead029bU, 0xbe803354be43a9f5U,
  0xbd351f53be1984d8U, 0x3edf923dbe12daeeU, 0xbdae9f25bd21aae5U, 0xbd9f86f63de2dc45U,
  0x3c79b39dbe16eccdU, 0x3f2b7eabbe0bb360U, 0xbdfa637bbd857cb0U, 0x3b83e6c1bda68853U,
  0x3c2f1b10be9e00cbU, 0x3e8817863d115048U, 0x3d03715e3c54c958U, 0xbd82173bbf209fc2U,
  0xbee66da0bd9f85a7U, 0xbe5206283e525547U, 0xbed77151bea7b24aU, 0xbe655cc0be06816fU,
  0xbe3400663eae5161U, 0xbea2265d3d832a5bU, 0x3dca00aebe4daebaU, 0x3e23d7bcbefce45cU,
  0xbf62aacabf0532c4U, 0xb8c50152bdcef10fU, 0x3b49faad3d20ee93U, 0xbd7e77893c0c9640U,
  0xbe1db996bc2dbac5U, 0x3ccf38c4bd56e10fU, 0x3cbfbc35bc9c71d8U, 0xbcac4dd6bd844a53U,
  0xbda59392bbdd771bU, 0x3df523e73d180e47U, 0xbbc54349bb87504dU, 0xbd8dc130bc94440eU,
  0xbd343c1bbd12478eU, 0xbdb97b7b3c2754dcU, 0x3e982170bb8967f3U, 0xbdc43709be4be5e6U,
  0xbe8d4bf93e33237eU, 0x3ab669d03e1db507U, 0x3e20d016be367858U, 0xbe55f0013e06c3ceU,
  0xbda65c86be34a6a0U, 0x3e8ed9c8be2b3496U, 0xbca6126f3dbb6bfeU, 0x3e4a16903e6873acU,
  0x3d8ea649bd192381U, 0xbe158e833e0411e7U, 0x3ea523ef3d335ad7U, 0xbc5e191cbdcfb77dU,
  0x3e3ea849be316bb8U, 0x3e9d8086bd446612U, 0xbd90de85bb6cef63U, 0x3e0a83803da4685aU,
  0x3d65f7d23adeee47U, 0x3eb3dcc1be0981b2U, 0xbdcd7a3cbd47d3deU, 0x3dcb1cc2bd66cd39U,
  0x3d9e5719be800203U, 0x3d6c25ddbdc4db29U, 0x3ea8092fbe0fa2a4U, 0x3d867b32bed67ff2U,
  0xbe2cd1493da34f85U, 0x3db510c2bcd0051eU, 0xbd5bc17cbde72704U, 0xbe5c3be13eab68e2U,
  0x3e452ae4be3c35c5U, 0x3e9bb1b13e68e2e5U, 0x3e2d6a0f3e2b9092U, 0x3e19a1a23d54d270U,
  0xbe9f49d6bf0518c4U, 0x3e8639bf3d899909U, 0xbe7e029dbf0822a9U, 0xbd33c3aebd0894a2U,
  0xbe885b483c93169bU, 0xbe2e6e36be6ecfffU, 0xbd09746cbeb642afU, 0xbb209fb83ea9507eU,
  0x3e0cd482be97b67dU, 0xbf1de97c3e138427U, 0x3da9c38ebd9c8a1eU, 0xbc81f72abdaf7604U,
  0x3e775b143ecaa299U, 0xbe8e53413d6028e1U, 0xbe192d3d3df65ef5U, 0x3ce21d59be0019e4U,
  0x3c2024d5be849a5dU, 0x3e85d49abe4cca0cU, 0x3e9c7a3dbd86cbc3U, 0xbe81dfe63dec8369U,
  0x3e3a245a3e97c62fU, 0xbdfee7423e814c7dU, 0xbe5ba2fcbd973fd1U, 0xbe59732b3f17280bU,
  0xbd8d89863db9c70dU, 0xbdf64ed3bf2f3ca7U, 0x3e991b4bbe11a254U, 0xbd589f6cbe166395U,
  0x3d0f0df73db2330fU, 0x3b5bba1dbd3577aaU, 0xbd673f5bbe449233U, 0x3dc5aa64bdd44a0eU,
  0x3dc0d9eb3d4abcb9U, 0xbe494c3cbdf9199aU, 0xbc612f283e0f88e4U, 0x3d28fbb53d9ed480U,
  0xbce198913dcba624U, 0x3beda510bd51a2bfU, 0x3dec4952be2f093dU, 0x3d47e49f3c9666fcU,
  0xbeac9e533ed56af2U, 0x3dd2b824be207e80U, 0xbc40447bbb4be3feU, 0xbe83a2fc3e4be978U,
  0x3e2a1040bf0eaa52U, 0x3e6d60e8bdd17ccdU, 0xbd0acd473d58217aU, 0x3e2f36813e8ec4bcU,
  0xbddd9ae9bd2cb196U, 0x3cd5cefc3d379188U, 0xbcab80053e095d4eU, 0xbdd39d6f3e2c3325U,
  0x3e8947553b994ad0U, 0x3d58343a3d200dd5U, 0xbba82d1f3d632d91U, 0xbc3aa04bbb7c4b96U,
  0xbe014f823d3f64aaU, 0x3e066df33d99a5a7U, 0x3b9ff3e93dcfe10aU, 0x3d8f69af3e123125U,
  0x3d23824fbe0059f4U, 0x3d4116ce3cd551ceU, 0xbcddf2143e1c119eU, 0x3d5011f7bce842efU,
  0xbe9571d4bdb2d6a7U, 0xbc68fbdf3e1792a2U, 0xbdaa2c293d4f8a05U, 0xbd3b52963e28fae0U,
  0xbe9573c3bedf7d61U, 0xbe9e481fbdd04a36U, 0x3dd6ee77bde4bd52U, 0xbd90a0f3be4a4ae5U,
  0x3d7691f63e974765U, 0xbd9bf098be699bcfU, 0xbded04f23c87bd50U, 0x3c086f10bdee47b4U,
  0xbd4176db3dd7a663U, 0xbd5645383c82e850U, 0x3d1798c33e12f8cfU, 0xbe12521d3d080608U,
  0xb8fa047d3cc68697U, 0x3b5912a23bbe93c3U, 0xbd12ea17bd8e1cd9U, 0xbdb18ea23e745993U,
  0x3c6183483d2267beU, 0x3df00f54bc3769afU, 0x3ce2df31be55e80fU, 0x3d19b2e53de5336fU,
  0x3b0a16c6bec2a22bU, 0xbe079d15be8c1838U, 0x3efc4f0a3d87e2dcU, 0xbed96c533e9dbd62U,
  0xbf26648cbe37b988U, 0x3e332ae73f22bb9aU, 0x3d0e456a3d5ac24aU, 0xbe22a406be89e1cdU,
  0xbdc19119bd4cfa52U, 0xbe45f8f73ecb3348U, 0x3c9584723b5941c1U, 0xbcbd6bd5be31ec13U,
  0xbd33e0ec3db023bcU, 0xbd7c6f14bdd12901U, 0x3d772ceebe115322U, 0x3d8c89b9bd5bdaf9U,
  0x3d51995c3c268c4bU, 0xbe17509cbd0c1422U, 0x3da1cfa6bcab3c1fU, 0x3d9567cb3d53241fU,
  0xbbd65cdb3d39a547U, 0xbc512b63bcd42441U, 0xbd83c2fb3d824233U, 0x3df776e13e1581d3U,
  0x3d589495bcec445dU, 0xbeca9b26be99dd1fU, 0xbd4e41e3bd4070adU, 0xbef6b4063f05b0b2U,
  0xbdfd01cbbe42ad34U, 0xbe4b9e6cbd100381U, 0xbe3326223e018b94U, 0xbeb15431bd683a5aU,
  0xbed4dd7e3e8bf4f5U, 0xbe3e98a5be6a9d39U, 0x3d54d9da3e2fb59fU, 0x3e87fa2cbda072c3U,
  0xbd71aaf8bd725426U, 0x3b23d275bdce0a86U, 0xbdb3bcce3e14f626U, 0x3d871aedbdd70cebU,
  0xbd9e04a1bd88edd7U, 0x3d8c60193c9c5fdbU, 0xbd0af1753d6213fdU, 0xbd2d4ceabe8bfcfdU,
  0x3d7a610dbdbb2880U, 0xbe2fba78bdbaf858U, 0x3eb3d1d2bd44c0e5U, 0x3d2cecf73f0989efU,
  0xbee086a13e4a74e5U, 0x3e4742263eab203eU, 0xbe1fd11ebdfd4eeeU, 0xbdbee3b43e59c954U,
  0x3e8c550abd7fb821U, 0xbe432a90be10f269U, 0xbd9747ec3e22fac3U, 0xbd6cf6553dd220b3U,
  0xbe990bd3be71dca5U, 0x3edd5f5e3eb8ec36U, 0x3e6bd6fb3d9f0eeeU, 0x3e00f0ea3cd0365cU,
  0xbded75e53d8a4e16U, 0xbe0b2be0bd4ebae7U, 0x3e0fd96d3d59338aU, 0x3e1af8cbbd00fbbeU,
  0xbd3b47023e39f08dU, 0x3d17ebee3d2402ceU, 0x3e05a1513e046783U, 0xbb34d671be780bcbU,
  0xbd2509d73d936007U, 0x3e4145463d2d2b32U, 0x3cf19ba03da0ffdaU, 0xbd28f467be4af57dU,
  0x3b8e7a40bde54d15U, 0x3b27c8c73db018efU, 0xbd8900ad3d5c690cU, 0x3e696e393d9150beU,
  0xbe3a18213e92a41fU, 0xbec92a593e2ad513U, 0xbce8a3f8be35097cU, 0xbc13776dbe5daf09U,
  0x3e6701743d83a623U, 0xbe0c80a1bdab0157U, 0xbd9828483ce85da5U, 0xbd9192d43ceceeb7U,
  0x3caa518dbbb6b25eU, 0xba7538b83d5d88c8U, 0xbd053ed4bb938ae5U, 0xb98873f9bbbb7606U,
  0x3c60b5653cf83b90U, 0xbd424be23c58b996U, 0xbb8758cfbc7128c3U, 0xbd11c2483db16c70U,
  0x3cdda091bcce0ea8U, 0xbd8b0869bbaa68baU, 0x3c053b483def79ceU, 0x3c9f93bb3c9fac6eU,
  0x3dc72e06bd1efd5bU, 0xbe0138213d54d05eU, 0xbd8b84f33d3cc1a7U, 0xbd232132be489149U,
  0xbd27bdf03c8f9938U, 0xbe4819c63d19c871U, 0x3d42bfcb3d4edebbU, 0xbb03e3d43d4a2440U,
  0xbd380c353dce8af4U, 0xbe58e214be5374cfU, 0xbd08af9abe126268U, 0x3dfdbca1bd358520U,
  0xbcf70ac23b22c8afU, 0xbdc228143e4c172bU, 0xbe4221b9bc7a88ebU, 0xbdb27fb83ddf9c3fU,
  0x3e0407103dd91e84U, 0xbe1ebe973d84b597U, 0xbd47e553bdda5ae2U, 0xbc6d0dd83c40c53dU,
  0x3cced9093e3a6298U, 0x3e9fa36abdd8d243U, 0x3eb3d8de3ef658cfU, 0xbe4dfd3b3dddf287U,
  0x3e877c323f0da0cdU, 0xbb99d7e1bee54110U, 0x3ed00d8c3e38a1baU, 0xbe31772c3c89a71eU,
  0xbe2199763dfa1496U, 0x3ee0026c3d64fbd3U, 0xbde14c39be1b0c6cU, 0x3e0335783e5b17c5U,
  0xbd17a08cbe5f635fU, 0x3e2d2170bd98915eU, 0x3d6460773e1cdd8dU, 0xbcf17b0c3da1e959U,
  0xbdac5f26bdbaca74U, 0xbce65d8cbca9b3b3U, 0x3d22a7fa3ea87166U, 0x3ce3d9b83d425033U,
  0xbd8ecb633c04b41aU, 0xbddf700fbd28ff73U, 0xbdbb815abd3682ddU, 0x3d11d8b33e1f605fU,
  0xbde4fc46bcc8bd42U, 0x3e04a05cbd2ab87aU, 0xbdb20ba2be04b28eU, 0x3e7499d13e909feeU,
  0x3e4fd319bd60d825U, 0xbe66861cbef28eb8U, 0xbec56f6bbdbaa469U, 0xbf2dacc93e80a715U,
  0xbeb18920be9cd97bU, 0xbc9730023f00243cU, 0xbe023a57bd39908eU, 0x3ead8744beb0f6e6U,
  0xbf46ccf2be80e8b0U, 0x3d07da0ebec29bfdU, 0xbdb80bee3e5aeff2U, 0xbdcb5e3cbe88ed88U,
  0x3d8c44ffbdee58cbU, 0x3e28ad94bda12f96U, 0xbe61e9b93dc96e87U, 0x3dd141efbc62ecfaU,
  0x3e80a05a3c75e6a6U, 0xbef2e0583c9ef360U, 0x3c67cec8be27dc4dU, 0x3e658b1bbe690fe5U,
  0x3efbce0d3ea6d3e8U, 0xbb9b2b98bd990b9aU, 0xbe6d0a8abd34e910U, 0xbd521be33ec3eb27U,
  0x3d66a0cb3e2247e4U, 0x3eacafc7be509c00U, 0xbea6254cbec627f4U, 0xbf17711e3dba3074U,
  0x3d80d218bef5bfebU, 0x3def024fbe0e732aU, 0x3d9339ce3e366ad6U, 0x3b21b53d3db9cd02U,
  0xbd666fbbbe694d26U, 0x3ecd01d8bda49177U, 0x3d27da24bda02b8dU, 0xbe01db6fbc0f457bU,
  0x3c0bd6183de57a62U, 0x3db643a5bb880c33U, 0x3db6744e3cb0cf2dU, 0xbb892c48bb47bb15U,
  0x39eeeaf7bdcf472aU, 0xbe389f463e30b658U, 0xbd45ceba3c9b3022U, 0xbcd17024bc22db54U,
  0xbc8c68dd3dec254aU, 0xbe8f7a9fbd41a760U, 0x3e312ae23e36b6c6U, 0x3df79de93e890416U,
  0xbd097d9bbec4e278U, 0x3e570c943d3205e2U, 0x3dc376613e253e23U, 0x3d3248903d833798U,
  0x3dfbe34b3a52dd68U, 0x3e0291e4bed9ededU, 0x3de4581a3d0467f1U, 0x3da1a8883da028aeU,
  0xbead94c43e953c3cU, 0x3b1b76a03d4bd9c8U, 0x3db2e030be03b72aU, 0x3e055e5bbca0603cU,
  0x3d6467ce3d25d5bbU, 0x3ca91e363cf97570U, 0xbd0b9cf1370871caU, 0xbd093464bcfd4eb9U,
  0xbc9380b7bdc3a53fU, 0xbd190cd73e06c9b3U, 0x3da92deb3d22d45bU, 0xbaaaa91dbe323e79U,
  0xbd46fdcf3e62ab0dU, 0xbd8e55d23c913250U, 0xbc94e52e3edc21cbU, 0x3dbc9e643ecd416bU,
  0xbe4ac3e8bdeed03dU, 0x3e6ca449be293966U, 0x3e6a389bbbc32a32U, 0xbec43711be19a733U,
  0x3e42e519be2b84c9U, 0x3e7fb905be04ec15U, 0x3d5974d53d4cc652U, 0x3e537bd83da64727U,
  0xbdb196cbbd95e8edU, 0xbe13a0e0bdda9c49U, 0x3ca5368d3de9ea79U, 0x3d2697ca3c102b3aU,
  0x3dc7bdb33d93a333U, 0x3d269d343c08b124U, 0xbd7dfe803d98fb8dU, 0xbbde7150bdd40264U,
  0x3b41bf153de20d90U, 0x3e13ad683b8c8218U, 0xbb1a646fbcb6a915U, 0xbcda6a21bd7120ceU,
  0xbcc2425cbdc267c5U, 0xbde1666e3c11a01cU, 0xbcc8851d3c9bb2cbU, 0xbdb2465b3e7496c0U,
  0xbe0f1965bdb6825cU, 0x3b90da923d0af1fcU, 0xbe01d1ce3c9fbe76U, 0xbb79edf43b778347U,
  0x3d0d5d60bdd630f8U, 0x3d8cb5c8bd22adf8U, 0x3d8d47b93cb717d3U, 0x3b3f784a3ed3b879U,
  0xbdfd78803e668824U, 0xbce9ccc7be0ce216U, 0xbd0922c63db1fa14U, 0x3e1e54e83c1820eeU,
  0xbe01e5113e38ff10U, 0xbe922c433db6ac12U, 0x3e7ec5b13e5b4c8dU, 0xbdc43d0dbe468eb4U,
  0xbe3c65673e9f4cf6U, 0x3e78a00a3eeb98b1U, 0x3da314a03df75c49U, 0xbca7921a3e6aa17dU,
  0x3dcf09783d38cdfbU, 0xbe2c9fcf3d12babdU, 0xbe3920143e522187U, 0xbd9e5aca3d21a75fU,
  0xbe9cbb413e71f156U, 0xbe52dc70be90b770U, 0x3f14f07ebd4ab053U, 0x3e5b97b7bec734dcU,
  0xbdab3b153d0b4b61U, 0x3e466049bd7a59fcU, 0x3df51a2b3e442c25U, 0xbe5d6024be244339U,
  0x3e72f7b33e1268b7U, 0x3dae8358be1a2e7fU, 0x3e4135ca3e31505cU, 0x3e92bc733e23327bU,
  0xbdc21756be907b51U, 0x3e5592c4bdfd6aa2U, 0xbdfeb9ec3e5eaf57U, 0x3e028d963dd67bf9U,
  0xbd99f5383c4bca86U, 0x3f17803bbde9c48fU, 0xbda8608c3e8ae94aU, 0x3c831deabe9138e2U,
  0x3e0ea4d4be143fedU, 0xbe805f36bda8dd42U, 0x3dd16189bcf5897dU, 0x3e00fa9dbe9041b8U,
  0xbe3fec38be495f5cU, 0x3ed517d9bf0595b2U, 0xbcd8b413be25f67dU, 0xbe3273c6be4d2afbU,
  0x3eb441523f143cf1U, 0x3d55baf13eaa7a12U, 0x3dd879563e2b9814U, 0xbeac1fc23e1bd868U,
  0xbee392d33cbd05b5U, 0x3ea8cbd13dbaa977U, 0xbdccdf9a3d050a01U, 0x3cdad7943d9d72a6U,
  0x3d2fecc53d8f6ab0U, 0x3b453ad6bcd11157U, 0x3c0216023cbe1300U, 0x3d913f193da48380U,
  0xbd5ad6593cda1368U, 0xbddad6963d96d284U, 0xbdb4041e3daccef4U, 0x3c954960be5012e2U,
  0x3e16f5c2bde4c41dU, 0xbe1d4b473c38df46U, 0xbbdfbaf63eaf85ecU, 0xbccca7b6be9aa518U,
  0xbccf991b3d056c73U, 0x3edffa15bd108899U, 0xbd147c01be0bf0abU, 0xbe257ddebeac30dcU,
  0xbcf5af3bbe90f4e2U, 0xbdcc289dbe7f6d85U, 0xbdd6aa55bc915b71U, 0xbe01cc71bdfdee91U,
  0xbe8c645b3d4683b5U, 0x3df802ed3e0300fcU, 0x3c5674f33d4e33e5U, 0x3d8e90d73e02d237U,
  0xbc85a1e83d406252U, 0x3d231aa2be0b1da4U, 0xbe286e9dbca7295aU, 0xbd16b51dbcc3b62aU,
  0xbe2091dfbd42f986U, 0x3e1cb0fcbe66f415U, 0xbd6654c4be038c2bU, 0xbc3bff3fbd2a09f5U,
  0x3e0da95c3ea15ea9U, 0xbd2fc8adba53b506U, 0x3c9602a73e0e24f1U, 0xbd55376b3f15b408U,
  0xbd04fd85bd530be9U, 0xbd6dc9cfbd72b97eU, 0xbd4de16abeb20f4dU, 0xbda9e79c3df191a7U,
  0xbe356d95be39b168U, 0x3eaba69bbeb7cf22U, 0x3e0fc896bd5bfcd7U, 0x3e635d633de29944U,
  0xbe20fd9b3db057d2U, 0x3e886143bd94a5f5U, 0x3b43920a3d921359U, 0x3c0ad032bb3f5246U,
  0x3d20e3bfbbfddfaaU, 0x3d603bf7bdd9f3a8U, 0x3cb4b3e23d5ffa64U, 0xbcd59330bd945596U,
  0xbc1e18b3bd3b39a4U, 0x3d2629023c15f383U, 0xbc3c47903cad8818U, 0xbd28d7eebcca5d3dU,
  0xbd212f223d19b39bU, 0xbd866234bd585b55U, 0x3dcc233f3e0a1031U, 0xbd857483bc8ef537U,
  0x3e0381ccbe1e360aU, 0x3e66a89bbd058f11U, 0x3d809b6a3d37e4dcU, 0xbcb1fea8bae2bb97U,
  0x3da12397be3f8aa8U, 0x3e3b63e03e1b05a5U, 0xbbf6c9583ca9ff41U, 0xbdd332d43de9a0ceU,
  0xbdc7a59b3c7e9f09U, 0xbdb34c693c5a1dcaU, 0xbdfdfd143c864c3eU, 0x3e2291c73d2aa32bU,
  0x3b2ba7f83e8a6995U, 0x3d9ab07cbd18e92dU, 0xbda8b63fbceef112U, 0x3d101a413dee676dU,
  0xbe19f7cd3c3516fcU, 0xbec541803df3d06cU, 0xbe328f2c3d80fa09U, 0x3e0573aabec513bbU,
  0x3e600d48be07d18cU, 0xbe0b67bbbcb7e5faU, 0x3decce813ec31c56U, 0xbdddae48bea1baacU,
  0x3d381e19bd2c3f98U, 0x3ed88ed0bed2f5baU, 0xbe93fae93dc6ae5eU, 0xbd03706dbeb2c6d0U,
  0x3bee65b5beca230aU, 0xbe742017bf2eb4a5U, 0x3de10c263e6c62dfU, 0xbd7e645fbe848d26U,
  0xbe7306503e5dd1efU, 0xbe45ee56bbf25634U, 0x3d3641f1be34580eU, 0xbe3c52383e377874U,
  0x3dc538003da9e5fcU, 0xbdd37d3b3eb0f208U, 0xbc24399cbdddfbb2U, 0xbd25dd873d26ba71U,
  0x3ddca5cdbaae4374U, 0x3cb6bd793e83b681U, 0x3bdb1b09bd0b1690U, 0xbde2caa2be2e100fU,
  0x3d826acfbe1a6623U, 0x3ddfabb2bd224fc3U, 0x3f0aabbe3dea3e3bU, 0xbe45a1d2bdd1c17cU,
  0xbea4f6133ea031caU, 0x3e98af3e3ef4ef80U, 0xbd4c0aeb3e658962U, 0x3e8e26683d30625bU,
  0x3e1b8d32befe9b34U, 0x3e2ffbd8be89ddbbU, 0x3e08addfbe5421dcU, 0xbdbdde2b3eb52a7aU,
  0xbd89dd683e0aab35U, 0xbc39c7d03e81ddbdU, 0x3d11deba3dc4931cU, 0x3cf572c53ce3519fU,
  0x3b6e10b63d44e208U, 0xbd818461bd79ec9bU, 0xbc91cccbbbf35323U, 0x3d0c278bbde7076fU,
  0xbd1ea880be2ccc5bU, 0xbe535a223d1a7fbcU, 0x3db780d3bca31b41U, 0x3cd8edb73e47575aU,
  0xbc260b973dd6a62dU, 0x3c22b0c4bc8b509aU, 0xbd8f2c51bdab1b6fU, 0x3e0669873d4dc372U,
  0xbd18fbdb3d96d235U, 0x392658d1bddc9f8dU, 0x3e426e7a3d577910U, 0xbdea13913de047e6U,
  0x3da9ebd0bc90d388U, 0x3ef36d973d024520U, 0xbd5706003cb39ef0U, 0xbebb4b9dbe0188dfU,
  0xbcfc1c2f3e656c95U, 0x3e4305d03c4d3dc5U, 0xbbff29343de6b242U, 0x3dbaac5f3d44cd70U,
  0x3dac7e693d53aeb8U, 0x3dac13b03c21606fU, 0x3c3dfc2b3e467a22U, 0xbcb0223dbd3fce96U,
  0xbe351cf7bd2a9146U, 0xbc77f5c5be4d2601U, 0xbdeaedbfbda28511U, 0x3d8757913df02cccU,
  0x3d8af7783d9747d8U, 0x3da3232abdd2756cU, 0x3e99dc413c41120aU, 0x3d18b58bbd3c4e09U,
  0x3f18dd393d1bfc29U, 0x3e0a0c4dbb367298U, 0xbe87c7d73e8ecc83U, 0x3d98c4013d25c4e6U,
  0xbe66fff8bb29fa18U, 0x3ede6f23be0bd311U, 0xbd8e6b3fbe29eb57U, 0xbdd356123e2800abU,
  0x3ea8dd8ebe5098d9U, 0x3eb6ff543c497177U, 0xbd2afed6bd87e405U, 0x3bfcdb7b3d972a58U,
  0x3cdcccca3c87a2ceU, 0xbe16c3f83e164b96U, 0x3cc9c3bb3cbb765bU, 0xbcbbec6dbd93303eU,
  0x3d0116793da25d22U, 0x3d5ccca43d9a1520U, 0x3d75a37b3d3d36f3U, 0xbd16170c3d916588U,
  0x3c574be73c659166U, 0x3d4ade933b8ecac2U, 0xbe0fadaabd92d4bdU, 0x3daccfdb3e51525dU,
  0xbea0762bbea1e063U, 0xbea416f03df0e27dU, 0xbd91850cbe0a955fU, 0xbd9868ddbcccb199U,
  0xbd8a49243e0a2b18U, 0x3dccf589be9a2a94U, 0x3d95f05c3e21a5a7U, 0x3dc75a93bd64907bU,
  0xbef288b2bd13aab3U, 0x3dd12d85bd887640U, 0x3c339fd73e702014U, 0xbd3cb46d3ce3009aU,
  0x3d9d2b29be0b2213U, 0x3c8e51f0bd13d544U, 0x3c58db8e3cc12989U, 0xbca768633d67e206U,
  0x3e581975be168a8dU, 0xbd02c4a83e0a614fU, 0x3d8a4ce7bb7e25daU, 0x3cbc6bc4be661a2eU,
  0xbc66db893d173dd4U, 0xbe3e31debd9c6f99U, 0x3eede735be7cd5b2U, 0x3d903d16bcedc16aU,
  0xbd7053c53e075d24U, 0x3ecc17633eda7e62U, 0xbe2b01623e9e8af4U, 0xbec2c9733e4a3190U,
  0x3f0541c73dc230d5U, 0xbdb99d65bd957bb1U, 0xbe03086fbe484bc3U, 0xbedbc4ad3e8466d7U,
  0x3d472964be28dc69U, 0x3ac6abe8bdb6c7f2U, 0x3c75a8abbdbe4bb1U, 0x3e1ca410bd6b7ff0U,
  0x3dc10e83bcdcb21cU, 0xbd445b003df49202U, 0xbd70156b3dea58cfU, 0xbbbf2c09bb7e625fU,
  0xbdf6b9803cd42536U, 0x3d66450a3d30c82cU, 0x3d23e72abd0f747aU, 0x3cd9530abe2fdb72U,
  0xbde385ad3e43b0eaU, 0x3d80ee6cbccf2d62U, 0x3e2df6763e5d2cc4U, 0xbe0f34b83d3e82baU,
  0x3d27339a3e34621cU, 0x3e290b22bec058d6U, 0xbc9d439b3e1fc2cdU, 0xbee46a8bbde91442U,
  0x3e7e65ad3de4e2ccU, 0x3e3fbdf33db56144U, 0x3db3505dbe070c03U, 0x3e4044073ee84554U,
  0xbe4d87b03e0bda84U, 0x3d40cad8bd083dcbU, 0xbf81b2523f0175c5U, 0x3ed1447c3f542f93U,
  0x40b1b12a3e40097cU, 0x3e43c1cc3fd8c9d6U, 0x3fbd7834bf245c2dU, 0x40134ce8bfeba2a6U,
  0xbfaab1173fceaa47U, 0x3f2d640d402f9089U, 0x3f3cb50f3f875cc0U, 0xbe70089640515edeU,
  0x3fd920bcbfba36ebU, 0x400313a0bf95b555U, 0x3f99dcfc3f97dfd4U, 0x3d76aad03f0a980cU,
  0xbfd99f93bf58d08cU, 0x3f17cafd402967cfU, 0x406852033f23b289U, 0x3f32cf993eb75eadU,
  0x4004b5acc0005527U, 0xbdd75e883f8226b6U, 0xbf0c0c4cbe01d545U, 0xbe6b949fbdecce6eU,
  0xbe756f51bef88d64U, 0x3e7f45d7bcb92a95U, 0xbd2061b53cdc011cU, 0x3e74480a3e31528aU,
  0xbc429d873d4a53e9U, 0xbe12fb983eb5e599U, 0x3e7784f13d08ddc5U, 0xbda403543c98e699U,
  0xbd1e27b23cc840ceU, 0xbda17af5bf22dab5U, 0x3f051d923c6e1982U, 0xbe3df1263d944e80U,
  0xbeb9ad70bf320f03U, 0x3db882bc3da3734fU, 0xbe48e3073f0169f3U, 0xbebd546cbeb05c1eU,
  0xbe0d83133caf824eU, 0xbd0170c93e50fb19U, 0x3f2ad85dbf580b76U, 0xbab05084bc47d52eU,
  0x39f179f63e31f17bU, 0x3e2a7781be709266U, 0xbe242bbebe905754U, 0xbe39f5523f2e3f5dU,
  0x3e808a543d60c6beU, 0x3e67b3cb3e93e1a3U, 0x3e8a4748be1b01a7U, 0xbe9114cfbe5c8686U,
  0xbe844da53dc0bbe6U, 0x3cd29692be49e6c1U, 0xbe72ba9c3b551badU, 0xbf80e1c6beb12533U,
  0x3ec2a74c3e521113U, 0xbd1c6cc4bf1a53c5U, 0xbe40ab573cc510cdU, 0x3e5ee1ee3d0cac4fU,
  0x3e8937b53f51b58fU, 0xbe8d201c3d001b5dU, 0x3c9051c13cfe1cd6U, 0x3c9440683e00bb71U,
  0x3fe6ab2d39878703U, 0x3d0c4f09bedc1047U, 0x3d93ea463e453d43U, 0x3e44e120bd55a515U,
  0x3d9908b5bd7c40b8U, 0x3d2215233f1b2eb0U, 0x3efabc143e2afc05U, 0x3c0913283e3185c8U,
  0x3d8e75353d38eed7U, 0xbe9c9a78bd938f70U, 0xbe373197bd1fe80dU, 0xbe264789be52e20aU,
  0xbcbb2ac7bdf52220U, 0x3c1dbb25bdc69263U, 0xbcaff165bebb786bU, 0x3f4066473e095b00U,
  0x3e92c4683e0e8af2U, 0x3dbdab633e7a5b4aU, 0xbb0b41ad3e9f17bcU, 0x3e27fcb33e34b32dU,
  0xbddf49853e1d94a6U, 0x3e790fc8bc64cea5U, 0x3c17774bbbea57d9U, 0x3cd30b4bc0372d98U,
  0xbcd59281bd308112U, 0xbdfc43213d4c053aU, 0xbdc06a8dbe376789U, 0xbebc1ebdbde13f71U,
  0xbe1ef4b8bdf599d9U, 0xbe042508be6f0d35U, 0xbe9a83a6bebbcc07U, 0x3e841949bec8b328U,
  0x3e817418bf172a45U, 0xbf0b5a0ebee813d2U, 0xbda59aaabf0bb2b0U, 0xbd71d6423dfb85a7U,
  0xbf57811a3d22a5c8U, 0x3ccd5b95bea198efU, 0x3efbad8fbef6eaa0U, 0xbde4dd58bd326127U,
  0xbda035aa3e4351a2U, 0x3f21185bbd6449c3U, 0xbd18b11dbd1c81c5U, 0x3e76b7593e744a01U,
  0x3eaa680c3ea168a9U, 0x3ef304bf3f04ed9eU, 0x3ee82b043eff8437U, 0x3ec847313e81e32bU,
  0xbe67a71dbe15f90fU, 0x3dfb5486bdf4e404U, 0x3e6339d33fea8120U, 0x3e338ba63e6f02e7U,
  0xbc9ec8773dd3dbfdU, 0x3a9bb9e4be832eb6U, 0xbf7ea4e73ed18cabU, 0xbb8bb51e3db6b08dU,
  0xbcefb13ebe77d54aU, 0xbef225bb3ee32943U, 0x3f5b7024be0d3051U, 0xbe5229fabf91b678U,
  0xbec20e493f160375U, 0x3d63835fbe031523U, 0x3d7b0f073e0cd4bfU, 0x3d85f3af3d78aa4fU,
  0x3dc650c03d8d4dc6U, 0x3e17e4f33ece46ceU, 0x3f5c0f983e398898U, 0xbddce2bd3e540e7dU,
  0xbe1f6791beccae8eU, 0xbdbcee8fbd92d4c4U, 0x3de824a0bd46872aU, 0x3d9ecd1f3f5b5edcU,
  0xbe672775bad68a0aU, 0xbc987cc93d910d7cU, 0xbd3871dcbbd92cb1U, 0x3e1bf6d9bdb2e164U,
  0xbce81dfa3d5d598aU, 0xbceae13d3f231e32U, 0x3d56d20b3d5e8eb7U, 0xbc6042973d8418d7U,
  0xbc8af52fbd68abf4U, 0x3f932f73be53c8ebU, 0xbdae4fb93cacaaa6U, 0xbd24f4ec3da8b927U,
  0x3f473030bd8cb6fcU, 0x3d814d87bd2b4189U, 0x3c7c49d9be802300U, 0x3e47b3a0bd8b7a89U,
  0x3e12414e3d06b570U, 0x3e598f383e080bcbU, 0x3dc84c0f3ea2546cU, 0x3d08fad33eb937fcU,
  0x3d9e5b04bc7dfcbfU, 0xbe68063fbdd3377dU, 0xbe291777be296731U, 0xbe23409ebf2aff45U,
  0xbe4166febdebeb5cU, 0xbb5f40f2be17fa8eU, 0xbd010af13f747d5cU, 0xbf752d693d2b7232U,
  0xbcb78aa53c743a5aU, 0x3d9a1e22bd566728U, 0xbd4d404ebbfde13cU, 0xbd243132bc40db52U,
  0xbc3c6e58bfad8c5dU, 0x3f8e66803cc5a85eU, 0x3b3852133d07322fU, 0xbd342d853eb95600U,
  0x3f1daedabdcf075dU, 0x3e0339eb3c13f4f5U, 0x3e0788983eb466c5U, 0x3f8e94bb3ddc169aU,
  0xbe40a1253e3d31f7U, 0xbe655f4abf159fdfU, 0xbe67948fbd2fe6beU, 0x3d60bbfbbd42449aU,
  0xbd906d063e61a838U, 0x3f7f31bc3dbee797U, 0x3dbd3af8bed9535fU, 0xbcfa8dd93e3907b1U,
  0x3ec410e03ebd022cU, 0x3e50630a3ead1ac9U, 0x3e89d894beb7942eU, 0xbe9476543dd0d5e4U,
  0x3d181a223dcd2094U, 0x3cb992c73f0c83bdU, 0xbfa7f49fbe2eae8cU, 0x3d3371a6be4ed78cU,
  0xbd3105853e5f3befU, 0x3d96c4cabdd7bc72U, 0x3e1a93f5be0fb443U, 0x3e2f6ecb3f031f9aU,
  0xbe765af3bdcc2dfcU, 0xbd97ed76be1f70c6U, 0xbd633932bd943216U, 0xbdddf065bee5eb13U,
  0xbe09c35e3d77094eU, 0xbd2c8625bd5ff987U, 0x3eba83f93fbb9730U, 0x3f8df5803fa92637U,
  0x3de5a6bfbe12dc0dU, 0x3fa691963f1a7c99U, 0xbf0c3850bea1d1b9U, 0x3fa46b483e02505eU,
  0x3cce98803f33f002U, 0x40073a54bcb31c40U, 0x3f2d76523fdc49efU, 0xbee52e013f2e5911U,
  0x400b8404bfb6d331U, 0x3ed3656bbefe1593U, 0x3ecc05723e3995fbU, 0x3d0235f03e7ce97cU,
  0x3cffeae03e65715aU, 0x3f1757f54018fb79U, 0xbf4159033f56dfbeU, 0xbf6668173e8c3e2bU,
  0x3fa3314c3f0a763eU, 0x3fd9267a3e9efcb2U, 0x3ec62445bd87fa68U, 0xbe281f2e3d96742fU,
  0x3d4b80b23db5d7f7U, 0xbe16a1ffbdb8db70U, 0x3e806422bd74f45eU, 0x3d455090bdb2dd80U,
  0xbe0c4e9a3e02b17bU, 0xbe0bb028bea1bf5cU, 0xbdcade6bbe377999U, 0x3e189145bdf1c5cdU,
  0x3e384e783ef337f5U, 0x3ddf5cd03e6b66c0U, 0x3df0f0e6bd4c4c87U, 0xbe848198bf5850acU,
  0x3d26f0f83a61f62fU, 0x3c04ea81be862d34U, 0x3e0fd051bd5d2f88U, 0xbe8648a83c4d4072U,
  0xbdd9b3d83db62635U, 0xbe1351aebde3837fU, 0xbcddc1413c935dbcU, 0xbe2089773ccae85aU,
  0x3e23c997bda67218U, 0x3e947ae33c3ce9a2U, 0x3f012e7c3e39e1eaU, 0xbd26eeaebddaba2dU,
  0xbe6193d0be3d8225U, 0x3dd204c5be9bbd83U, 0xbe7090c63d9d1ba2U, 0x3c72eb49beda8924U,
  0x3b869eb0be6f4287U, 0xbd656c453d62d0a4U, 0xbda802d4bd6ed3c4U, 0xbb35f3883cb3a55fU,
  0xbca30cc13d838ec2U, 0xbd9bcb49be195a6bU, 0x3c7b30243de79aa1U, 0xbe5389de3d658f6aU,
  0xbe182aa63c367ef8U, 0xbdea742c3e2422bbU, 0xbdd725d8bf1d60e9U, 0x3de835dd3db3e498U,
  0xbd1fd54e3b491d57U, 0x3dbf9d88bd864c50U, 0xbc282733be68454cU, 0xbdb23b353e028261U,
  0xbe11268b3e49a908U, 0xbe8e5093bcd91828U, 0x3d78c0cb3e4482eaU, 0x3e04e758bc871fb9U,
  0x3d917c26be030b13U, 0xbd92e2023d83ca33U, 0xbdf2f0c8be8b9eb4U, 0x3c45e68b3e8e47a7U,
  0xbd8f63b73e6949eaU, 0x3e4c4898bda7efb0U, 0x3e0615383df08365U, 0x3dcbea293b92c779U,
  0x3e59c840bd3fceaaU, 0x3da769403e79cdcfU, 0x3d7370613e86734eU, 0xbdcfecf8be717b59U,
  0x3d8304963d2aac1fU, 0xbceed6b63d2c24fcU, 0xbe67d09cbe61e84cU, 0xbe0276ea3ddea4c5U,
  0x3eb4c3753ea7f648U, 0x3ec29eb73ea84b4eU, 0xbd2f6e663e8f3215U, 0xbe93792b3d0a37a2U,
  0x3c9e9d69bd603d19U, 0x3e23cfdf3ddc97b7U, 0xbe145e453d9ee10cU, 0x3e1921be3ca5358bU,
  0x3ea1b57ebec215efU, 0xbec40b0a3f287112U, 0xbe96fa4abf09e2c7U, 0x3e7fd76dbbd21908U,
  0x3da39f9e3d6d22cbU, 0x3d8b1dd6beca2c17U, 0xbca6e8abbe0b71fcU, 0x3d8af311bd99d2bfU,
  0x3dc4381a3f15e9e1U, 0x3b31a5e03d8dd1b2U, 0x3f7da226bb6d2b51U, 0x3efb1b1f3e152285U,
  0x3e1faffa3e7ed5b7U, 0x3e36d5283f748580U, 0xbdfa01893d052b69U, 0x3d827d5e3e37724dU,
  0x3f2d73343e025fd6U, 0xbdf8f3b0be1500b0U, 0xbca1b787bd101514U, 0xbf8583db3d19aedeU,
  0xbe3589273d7cabfdU, 0xbd852383bd32e6c2U, 0x3de48b29bd3a6305U, 0xbf8882623da12bffU,
  0xbe4cf39f3d518046U, 0xbf45f0c13e842455U, 0xbd39d8b33ca408eaU, 0x3d05a475be56cf98U,
  0xbe9720dc3e21fdeeU, 0xbcb436fe3ebfb7e3U, 0xbf7076ffbd5148deU, 0x3e0ba8123e744c82U,
  0xbe3de9843e501b82U, 0x3df0b833bf0e6006U, 0x3aaa9d86bdf5e81aU, 0xbe01c15cbee70548U,
  0x3ebd776d3e8af8a6U, 0x3dfe47cf3f421546U, 0x3edd84cb3df3733dU, 0x3f0f50b7bf64429bU,
  0x3dbc12a1bdcd82bfU, 0xbca332a7bd7ad8aaU, 0x3df3565abd1644beU, 0xbebee244bbaadff1U,
  0xbe6f728bbc985444U, 0xbe94d0dd3e4598cfU, 0xbe386424bee0be02U, 0xbdd91038bdbbed55U,
  0xbe2e84ddbf03ff2eU, 0x3e0ecb393c903568U, 0xbf3770ccbdb28830U, 0xbe588b903f0132abU,
  0xbca4c6b63f485347U, 0x3e68ba65be14a55eU, 0xbe057117beb41b3cU, 0x3e786e473d73d7caU,
  0x3e8f9b643e87b955U, 0xbff89dddbebc6651U, 0xbd8851a4be509871U, 0xbe7b58a23e3a23d2U,
  0x3edaa286beefa8d7U, 0x3ea6628e3e1734f5U, 0xbe2237d03d59153eU, 0x3eff37a53e863a43U,
  0xbf45f2803ef1eef0U, 0x3e0b70cabf7645dcU, 0x3e1e742e3d9bc314U, 0xbdcffdfcbd7a4121U,
  0xbb58e3393cfad7d4U, 0x3c9514e9bd02c4b5U, 0xbe9b43e93b801c13U, 0x3e485d693ec85060U,
  0xbe0bca4abdbb9a1cU, 0xbec214563e8c6ecaU, 0xbc78a0613e99245fU, 0x3c1ef2e1bc1d08b1U,
  0x3d5d8782be59e4e8U, 0xbe19d3eabd4db7ebU, 0x3e809ae63e8cda66U, 0xbe0e354d3ef382a8U,
  0xbefc60f13e4c3f4fU, 0x3d9658d83e90286eU, 0x3da4afbf3c99aaa7U, 0x3e854aa23e85a656U,
  0xbe8ef1c7bc0381bdU, 0x3e76f304ba0595d2U, 0x3d971547bdfd7bdbU, 0xbe166926be08bcefU,
  0x3db10c373dbd2e21U, 0x3c049b0a3d8ef640U, 0xbe2bc7933e1e63a9U, 0x3ddb9f95bd91f854U,
  0x3e11d7f5be0592c8U, 0x3e0c4f4cbe823940U, 0xbd6aac5e3de8a18dU, 0x3e3bb8243c0c9319U,
  0x3da1999a3da5b1c9U, 0xbe029cdebd10da0cU, 0x3d2d05993e6d4f93U, 0xbed3b743be4b00bbU,
  0xbdead61b3ced65e2U, 0xbe51222ebd947bfdU, 0x3da00a36be246b0cU, 0xbe02de0e3f1a877aU,
  0x3e6e7bf2bb805254U, 0x3d5b7e853db27b17U, 0x3dd43cf43e8ed6e7U, 0xba89ad69beb5d78dU,
  0xbca3bc5ebb15a524U, 0x3e6fc5c13d59bac6U, 0xbdb28973bf090f8bU, 0x3e7070503df73609U,
  0x3e21df8abd67a269U, 0xbe5d45173e7284a3U, 0x3e56bb3c3e0a032fU, 0x3bfe4ba2bd2150e3U,
  0xbd4cab6c3e45f4c7U, 0xbd79df9c3e3872c0U, 0xbdf32102be138f7eU, 0x3c6365a83e59f682U,
  0x3dd5e8233dd6e6cdU, 0xbe5fb95dbf27f837U, 0x3ddf51303ed6bc1fU, 0x3dd47b723e146d45U,
  0x3eb06fcfbcfbff0aU, 0xbb93ab303a3180b9U, 0xbf1780813d8dee58U, 0xbe1ca42bbd777910U,
  0x3d56f2cebf0fcc83U, 0x3c56afe43da30bc3U, 0xbddb699dbe418509U, 0xbe0501243c6e75cfU,
  0x3c9ff7ecbdaa11d9U, 0x3dd55db6be8edcfdU, 0xbde2130abe59d113U, 0x3e129daabd1c2faaU,
  0xbe9f4cb0be82e5acU, 0xbe4353483ecd345bU, 0x3dfe7d1fbcaf1073U, 0xbdd40ca7bf4b8f5fU,
  0xbeae8734bb6f9079U, 0xbd21e3e23dadd803U, 0xbdbaac57beb44442U, 0xbe0fcd02be4f7e1cU,
  0xbe9d60b93f315d5aU, 0x3eae7412bd99f33dU, 0x3cf56b473cdafa03U, 0xbd95515cbdeaf543U,
  0x3dfdb034bc246bd7U, 0xbe4c154b3cf66b9fU, 0xba862fce3db45216U, 0xbda1cf18bec28936U,
  0xbe8dc2ba3eff79bbU, 0x3f508d193f065229U, 0xbdfccd0cbe3f1ddbU, 0xbe5f5172bea654e2U,
  0xbea2a3e83dae0754U, 0xbd306464bdd7090dU, 0xbda77336beab37a4U, 0xbe29977abe8e32c9U,
  0x3ee7ee7fbe3ddfc0U, 0xbd9a2f443e446744U, 0xbda41d80bc0d9eebU, 0xbe97eed63e19c96aU,
  0xbcb41dfb3e675f1cU, 0x3cecf62ebd92b85aU, 0xbe32feccbd33b1adU, 0xbe6efbadbf14d343U,
  0x3bcc3cadbd431a07U, 0x3e261b12bdfca3eaU, 0x3dece6fbbf050deeU, 0x3e586f67bea8f3f6U,
  0xbe4b0423bd6ab085U, 0xbd737dfcbf3d3669U, 0xbd1687b13d80002cU, 0xbc3413d13d304fc8U,
  0xbe1df40d3e5e61e0U, 0xbf81a18e3c3d7826U, 0xbe50c69e3d3ba64dU, 0xbe9602483e9bebe8U,
  0x3c6b7a81beb98f8bU, 0x3e1d643abdc9221dU, 0x3d2283133f362775U, 0x3dae7872be767de3U,
  0x3d2bcde53e9cb171U, 0x3e3ea991be8cf347U, 0x3e180315bd707eb6U, 0xbe59b87ebfbd2de5U,
  0x3d16b8bfbcf44d3eU, 0x3e8508533cbd897bU, 0xbd2641a9bee89886U, 0x3e852e1abd3769ffU,
  0x3e2087163f5e3d0cU, 0x3ebb3685be9d15dcU, 0x3dc3998bbd822bd5U, 0xbe27a7fa3db66105U,
  0x3d9edf223e5d5293U, 0x3e0aa6b2bceabd56U, 0xbe762713be750f44U, 0xbe065c543dc7cf22U,
  0x3bc84e203d8be1c9U, 0xbdbf82f93d601df0U, 0xbdaac9cabf2cd417U, 0xbd449a0ebe14ca96U,
  0x3e08c1a03c474d77U, 0x3da4ed4abdedffdbU, 0xbcf40d94bdb67346U, 0x3cab86693da8faf6U,
  0xbdcf917a3e9e08b5U, 0xbe317d3dbd8da748U, 0xbe4968503d9e3018U, 0x3df9b135bda5881aU,
  0xbea2bc30bdb6583fU, 0x3da543b0be1f4f3eU, 0x3e33ed663da3888eU, 0x3b3c343a3c33ba82U,
  0xbf315bd73e740cebU, 0x3cf4992d3e6b83a0U, 0xbdf1bacebd93d1b8U, 0x3d18f8233de1ff37U,
  0x3c3d523c3db71828U, 0x3a418157bdf479a2U, 0x3e1377313daa2cbcU, 0xbaaa64883da3660dU,
  0xbc9532be3b7630deU, 0xbd88296e3d37e06aU, 0xbccd7a21bcaf8afcU, 0x3bb41ae33c2d0e2dU,
  0x3e0b9bdbbd6da287U, 0xbce48eb43d92b2dbU, 0x3e8b45a53d4d190cU, 0x3ea7ceb0be489658U,
  0xbe073884bf0edbaeU, 0xbe2360f5bebcb7d5U, 0x3d20ffeabd05f823U, 0x3e69c319bd700d40U,
  0xbe5458b4bdfb6fa7U, 0xbe1dfa77bdb3efecU, 0xbe5d4c28be03c5acU, 0xbe9a5fc93dcd7742U,
  0x3d2a73923dee5602U, 0x3d8c59cfbf4c8ae0U, 0xbcf484613e0b2fc9U, 0xbe5424a43d5c4eccU,
  0x3d0a4f8e3dd5e706U, 0xbc3a4018bb6ff2ffU, 0x3ce019803d773683U, 0x3d2644883d102059U,
  0xbd18f78cbde937b9U, 0xbd18c234bdacf2b0U, 0x3e2454f83d24c94fU, 0x3dcc66d53d25dc40U,
  0xbd368e7abdd9cf0aU, 0x3dcc078bbd92839bU, 0xbd4c67f2bbb66b6cU, 0xbd257d783d8a6987U,
  0xbdabe2b3bc32dbf3U, 0x3dfd4e9fbcebfe3fU, 0x3e920a9e3e35404aU, 0xbd3c9e123db2dfb1U,
  0xbc18645a3e1cd478U, 0xbb5642a2be157cefU, 0x3e0775c6bcbdfa33U, 0xbcd4016e3e0eaf93U,
  0x3c92ef0ebd8e903cU, 0x3e26a8fbbb094674U, 0x3df132f03d2cdf96U, 0x3d8b37f73e822ae1U,
  0x3d2d0ef13d418017U, 0x3e0cd2573d375a9fU, 0x3de707d0be4a1210U, 0xbd0adf343f0ec151U,
  0x3ead8590be27882eU, 0x3eac1b2abc90c7a3U, 0x3da0864ebe329731U, 0x3ecb85b4bdd812b4U,
  0x3e2f5a2e3e612dc7U, 0xbf0893013e2fa95fU, 0xbe9210883dd5f435U, 0x3d772ba8be852a5dU,
  0xbd04e69cbe3340f0U, 0x3ba0f948be6bb80aU, 0xbe7837633c035656U, 0xbe8bd1a5bedbb823U,
  0x3e59119d3e9c0d7cU, 0xbe16a0dfbe28507bU, 0x3d4810cfbd324b66U, 0xbe853b1bbf1dfff1U,
  0x3d1890b83d8a4accU, 0xbe2d61fbbd6b01b0U, 0xbc0f00a63ea89702U, 0x3e40ab7fbe59a2eeU,
  0xbe2474bf3f2032adU, 0x3e1dd246beab45b8U, 0xbeabd2293dc625daU, 0xbe012f8d3cdde307U,
  0x3e08051fbd9553b6U, 0x3ccf7e66be1b566fU, 0xbe973f2abd396126U, 0x3e86e70e3c1e6856U,
  0x3a83cef1bda72a7dU, 0x3efdeebd3ef41f60U, 0x3dbc16abbec44106U, 0x3dec4b6abea32623U,
  0x3e951cdfbdc942b8U, 0x3c95212ebee14952U, 0x3ef314d83dfa855aU, 0xbd48918dbecc8f73U,
  0x3daede593dd18c0aU, 0x3eea83243e4581cbU, 0xbe53246ebe8a28a5U, 0x3e1ffb0a3f0bad50U,
  0x3ef5ea693ee4d38bU, 0xbf34f7363d8be962U, 0x3e12fdd53d8fb0baU, 0xbda0894f3d51f7f9U,
  0x3dcdca443ddcbce2U, 0x3d7001c33cfab2a1U, 0x3eca472e3e248672U, 0xbe72df38be847ed2U,
  0xbf157d923e446df1U, 0xbe2265083bd7bc57U, 0x3dcc1b11bd942b30U, 0xbdab4b103ee3b2d9U,
  0xbe2c1965be246356U, 0xbe881ae2beb89684U, 0x3f29ebd8be663e3cU, 0xbe1322053e802dffU,
  0x3ed98d5f3f61259dU, 0xbd94f1bc3e1fa8fdU, 0x3f5aae523d5b1045U, 0xbe8cb9ae3d12eaffU,
  0xbf418f13be6afbc5U, 0x3e0c6777be877a5bU, 0xbc3e8ff6bb9dca96U, 0x3e5f9e09beff08d0U,
  0x3ccf98df3e083696U, 0x3e72794c3efad3fdU, 0xbe26ef1c3c6794feU, 0xbf0695813e7f5c83U,
  0xbefc954c3d2a07dbU, 0xbe9cf3c43ea2a593U, 0x3c273699becfc40fU, 0xbf6f33bcbea4d711U,
  0x3e3fd7543ecbc0d7U, 0x3ee6cc593e4c7950U, 0xbd2afca5bca2c993U, 0x3b0bd7aa3edacd69U,
  0x3c9db7b6be386ce8U, 0xbdd04565bda4ddd2U, 0x3d3f7d373ea535eaU, 0x3e15dfd1bd9febdaU,
  0xbd0e1b193dac8745U, 0x3f1c87e33eb06434U, 0xbc13bbdf3de21d77U, 0xbe074ad7bdce430aU,
  0xbcd233023e8e01fbU, 0x3e176cd8beb9977dU, 0xbe977fd3bdd0bfd4U, 0x3eb433353ec2f681U,
  0x3eee28f0bf08207eU, 0xbdc05fcb3d9fb9f3U, 0x3e5cd7243f01658fU, 0x3e56ca06be120e1dU,
  0xbbecf7aabe82cd5eU, 0x3b5d037abe18843aU, 0xbf1b8520bd2ad1b3U, 0xbd6cf17abd87798eU,
  0x3dc8ec003d17559fU, 0x3dcb18223eb1695eU, 0xbebb6c03be3a6e17U, 0xbe41f2253e472e95U,
  0x3e983857bd0c59b5U, 0xbf5cf8eebddce41aU, 0xbe1da5003e32e644U, 0xbcdd96f4beda6299U,
  0xbe4e0f0fbd8381ffU, 0xbeb2d3f5bd3f5ce6U, 0x3eab8d763ed5b4d5U, 0xbdcc53dbbde2d214U,
  0xbea685e63d4eeb9fU, 0x3db494ff3d4b9351U, 0x3e0daab7bd1e9c02U, 0x3e833c88bd9a10e8U,
  0xbe305c3abeed2abbU, 0xbf0087203e6e81dfU, 0x3f267ed5be0cb851U, 0xbe3efba83cca2835U,
  0xbe7932db3c3d23cfU, 0xbe552697bd98f1b2U, 0x3e694d693dbead31U, 0xbe99837d3d3c3c8fU,
  0x3e32fd0dbd4c6719U, 0x3e395ea23e8d07bbU, 0x3e91164d3e32cf01U, 0x3e4c03e43f85f501U,
  0xba93c328bd4cd041U, 0xbdacba4b3e86d448U, 0xbdb75ad33e0e7ebfU, 0xbf333c4ebe192206U,
  0x3d1033dfbe313da3U, 0xbe16ed913c70f0ceU, 0x3c884b6ebe317f92U, 0xbea0da46be9f4cd9U,
  0xbd274ff3becc7565U, 0x3ed901e83d41405cU, 0xbf5a09543d0e74ebU, 0x3e4fd10a3bc6ea29U,
  0xbd21c7e3be8b0389U, 0xbe35379a3db343f1U, 0x3e3251ee3e1a5b57U, 0x3e1d5956bda65f37U,
  0x3bdd71603c3122cbU, 0x3e4b06703e837584U, 0x3cb75d3b3de229ecU, 0xbe027b0dbeab229fU,
  0xbe4403883ec1b6a0U, 0x3e33517b3f0329e2U, 0x3d228f02be3f9142U, 0x3e82ac4f3e9a2584U,
  0x3e10fc5f3dbf3c1cU, 0x3e2d3b773e861e37U, 0x3dfc5f533e1446afU, 0x3f0019bd3e5e2d2fU,
  0x3ea0582f3e617111U, 0xbc5755c9bddc0e3aU, 0x3e3258383d93d9a8U, 0x3c0d6b0e3d03cf64U,
  0x3e4942cf3e9175a8U, 0x3e3e6a183e1d1a6eU, 0x3e7dd10bbe214c82U, 0x3d4a5159bce731ebU,
  0xbe6780083e9780edU, 0x3ddc9d6bbe0c8f69U, 0xbe82df4dbde0ba01U, 0xbdab679cbef90f84U,
  0x3f9fda5d3ec84375U, 0xbd8a00953e9e359dU, 0x3de16dfd3d57db9aU, 0x3e8b6286bf738d46U,
  0xbc1f2fafbe5ae188U, 0xbdd4c3823db08e58U, 0xbd4706df3ce8b8a6U, 0xbe40592cbd4b7990U,
  0x3e19ec5f3dd47474U, 0xbf984875bcaa0b2aU, 0xbe0439743d403d63U, 0x3dbf933f3dfdc482U,
  0xbe6884973e3955cbU, 0xbe22c7d4bd2a7c59U, 0xbe8c880b3dcb763eU, 0xbb49a3a4be129000U,
  0x3ed8b2183d8920a9U, 0x3e5de4693eabc76fU, 0x3eaba1b03cc950e2U, 0xbcafcba43f8c45c7U,
  0x3e20370a3e56e58eU, 0x3e71e83e3e90609fU, 0xbdec3e65bd62e5a7U, 0xbee1137d3e8b2b16U,
  0x3e3f1149be4f5a59U, 0xbbc132973e3e40dfU, 0xbdefddcebd8691b9U, 0xbe41d3eebd040ba0U,
  0x3e3055c5bd96af09U, 0x3ebb084dbe1ba2f5U, 0xbe18018bbdd13689U, 0xbdef00b73ded1c19U,
  0x3ced9064bd8537c2U, 0x3e0703f23de24a1fU, 0xbeff5e923e1f8c1bU, 0x3eb6eb8cbe83de37U,
  0xbdc38987bc2d2823U, 0x3e7947f63e94a5e0U, 0x3e8f3c8bbe17b2adU, 0x3cbb0a27be0d7153U,
  0x3e18d8093e99a0a6U, 0x3ee5e970bd248790U, 0x3f236d373dd32c34U, 0xbee9ad9cbe9fdf76U,
  0x3dd6af2dbd60cc50U, 0xbe5b2cae3ec613eeU, 0xbd548ff93f053000U, 0xbe5986273f159b82U,
  0xbef5444d3e093a22U, 0xbb902704bea43256U, 0xbe3fa6223b55bb0bU, 0xbe0ebb943ef4f66eU,
  0xbc0cb45dbd575035U, 0x3d3d56163d909861U, 0xbec4bd76be220a4eU, 0xbeac94943d2504e4U,
  0xbdcaf06cbd8f7182U, 0x3e4f85443f5af51aU, 0xbd5a3c5c3d892cafU, 0x3e4ae84cbd430575U,
  0xbddf6996be9feb6eU, 0x3e0db5bfbc8bfa0bU, 0x3f03cd863eac2323U, 0xbdf21b41be2a5b59U,
  0xbde722e1bc8415deU, 0xbeb63bfa3e695897U, 0xbdc79315bcb8d116U, 0xbd3cf16c3ee39167U,
  0xbe8ac0763e0bf46dU, 0xbdd53733bde72767U, 0xbe257164bedd5778U, 0xbde8b5c0bf11efe2U,
  0xbd2e2f193d606bd2U, 0x3e166bc5bddc48bdU, 0x3debab1ebea38c77U, 0xbd116608bdb98b98U,
  0xbe24ca3b3e93a6a2U, 0x3e2f4c86bdfaf015U, 0x3ce59962bdcdea07U, 0x3e380ff8bd2a0bcbU,
  0xbd8aed10be6e6966U, 0x3e9a62643d5f33b6U, 0xbf2065c2be74c0f8U, 0xbd404c873e45d413U,
  0xbe6054cfbe0f1411U, 0xbeca8eaa3c1aa30eU, 0x3df87b653db53917U, 0xbd1c720d3e2e76a9U,
  0x3e8cb6c33e3c80abU, 0x3db8bb81bf00c26bU, 0x3da094913c6c95cdU, 0xbe0917253d294cdfU,
  0xbe48b83f3ef231c5U, 0x3de936c33daad0cfU, 0xbf11804ebdaf698fU, 0xbc88405dbe4ec5bbU,
  0x3e44e6233e1d9793U, 0x3e0f0cc23e3ad8bfU, 0x3d3897873bf34ef3U, 0x3e1d96f03e762b86U,
  0xbdf149ac3e107fa9U, 0xbe3caa813e2aaf7fU, 0x3d9e82c0bdb3f63fU, 0xbf06b5873c07a2d6U,
  0xbe1dd911bd6bbaa1U, 0x3daa9962be09511fU, 0x3c4e8e53be63c36bU, 0xbe388d703c8ee5c1U,
  0xbae227123e82f520U, 0x3dcfd4d5bc91b4efU, 0xbd4400b8be2ed658U, 0x3d9d2bef3da56d4dU,
  0xbd1883263d2aba60U, 0x3c68d34cbca5bd8fU, 0xbdee1fd03e1150f1U, 0x3e65da4e3c9018bcU,
  0xbd0b56cdbe68b858U, 0xbdd39660bdd04383U, 0xbd457f493dbf0a1dU, 0x3d06239a3d2aac83U,
  0xbc960c31be4f54f0U, 0x3d4c358b3d249451U, 0x3dd671393e19cb1aU, 0xbd09e0cd3d2cea9aU,
  0xbe1b9b3b3e2a5a6cU, 0x3dc5c30b3ea0f4c4U, 0xbdae5dee3d4c848eU, 0x3d97d8543dccafd2U,
  0xbe02163b3da5ca0eU, 0xbcc70fc5bd65f517U, 0x3fa316383fbf7bb2U, 0x3d566c003f0a029fU,
  0x3fc07848bf41950cU, 0x3f0c94a440105b64U, 0x3f0328663f99f739U, 0x3fd06d6a4066928eU,
  0x3f92e336401f1fabU, 0x40067ca23fee5fbeU, 0x3fa6058f3e0afedcU, 0x3f89284c3d5f09e0U,
  0xc0062bf8be8452e6U, 0x3e61d868408d6b30U, 0x3e33a3aebf0d592bU, 0xbe88b2d2c0190bcdU,
  0x400732fb3f8a3c50U, 0x3f1c36423fe8aa52U, 0xbd490a19be3265f8U, 0x3c4a28943d10ea71U,
  0x3ed418a5befd749aU, 0x3d84fb083bb7ed54U, 0x3b683706bc6039dcU, 0x3b8dd4debd8880ccU,
  0x3a8fee33bc3f0fe7U, 0xbd415f093eba5d0eU, 0x3d6dbb023c7a80e7U, 0x3baacc963cc7e65aU,
  0x3c3b636abbd9c9b1U, 0xbdcb5754bcffce9fU, 0xbe8ebf2dbe0a7a17U, 0x3cfeb5a53e486b00U,
  0xbc6196c8bc01400cU, 0x3a0630033ebd8b4eU, 0xbb253f26bd82a302U, 0xbd6c90743d45d24fU,
  0x3c15ae8d3d0c3a5dU, 0x3d80a5a4bc8ac443U, 0x3ea89fdabeaa417aU, 0xbc41d114bc96b679U,
  0xbeb8a0c53e91eddbU, 0x3df41758bcb73660U, 0x3d34c2d7bf0fcb30U, 0xbd1c8999be7e9732U,
  0x3e21c2053c8dda69U, 0x3c9aa6b4bd4cac4fU, 0x3b914451bd4aa0f6U, 0x3e8d33c73ae35948U,
  0x3da22ec33eb1fdc3U, 0xbd21c914bda2ca28U, 0xbcfe65ee3cbc726eU, 0xbc42a6483907e00eU,
  0xbd74cb55bcd65062U, 0x3db70f173c55e344U, 0x3c8bd82ebc5aa09eU, 0xbd432d2539e4b589U,
  0x3a783bc6bc03e94dU, 0xbb28bfaabca61989U, 0xbd8472a7be4f1e57U, 0xbc93cdc03c15d5b8U,
  0xbc7e26d4bc0f823dU, 0xbcbd575abc5e201bU, 0x3d7cd1e03c3f7157U, 0x3c9d00463d6126a7U,
  0xbc642421ba81fdb1U, 0x3ddd1c3c3cfbbd2aU, 0xbc28a5103d67cf3eU, 0xbd96eda63d3b9b09U,
  0x3c74aabe3aaab16cU, 0x3cbded2cbbee755dU, 0x3ca688163c100d3eU, 0xbd3fa08c3c84f35cU,
  0xbd9eaf493d1ac0a7U, 0x3db0f7703b97f467U, 0xbcb9e14a3e0450dcU, 0x3a439794bca55da1U,
  0xbc852ebb3c27b9b1U, 0xbca64b533ce3fa56U, 0xba650f383b9a13f3U, 0xbcae5dd23c89beb3U,
  0x3c82938ebd85c2abU, 0xbd971a693d0998b1U, 0x3f489341be93c76aU, 0x3f25e55f3df408eaU,
  0x3e6950333ea620faU, 0xbf61a2f8bf1efb74U, 0xbebefc22bf3f51c5U, 0xbf9148e5bf57d0c5U,
